{
  "version": "1.0",
  "truncation": null,
  "padding": null,
  "added_tokens": [
    {
      "id": 0,
      "content": "<unk>",
      "single_word": false,
      "lstrip": false,
      "rstrip": false,
      "normalized": false,
      "special": true
    },
    {
      "id": 1,
      "content": "<s>",
      "single_word": false,
      "lstrip": false,
      "rstrip": false,
      "normalized": false,
      "special": true
    },
    {
      "id": 2,
      "content": "</s>",
      "single_word": false,
      "lstrip": false,
      "rstrip": false,
      "normalized": false,
      "special": true
    },
    {
      "id": 3,
      "content": "<pad>",
      "single_word": false,
      "lstrip": false,
      "rstrip": false,
      "normalized": false,
      "special": true
    },
    {
      "id": 4,
      "content": "<mask>",
      "single_word": false,
      "lstrip": false,
      "rstrip": false,
      "normalized": false,
      "special": true
    }
  ],
  "normalizer": {
    "type": "NFC"
  },
  "pre_tokenizer": {
    "type": "ByteLevel",
    "add_prefix_space": false,
    "trim_offsets": true,
    "use_regex": true
  },
  "post_processor": null,
  "decoder": {
    "type": "ByteLevel",
    "add_prefix_space": true,
    "trim_offsets": true,
    "use_regex": true
  },
  "model": {
    "type": "BPE",
    "dropout": null,
    "unk_token": "<unk>",
    "continuing_subword_prefix": null,
    "end_of_word_suffix": null,
    "fuse_unk": false,
    "byte_fallback": false,
    "ignore_merges": false,
    "vocab": {
      "<unk>": 0,
      "<s>": 1,
      "</s>": 2,
      "<pad>": 3,
      "<mask>": 4,
      "!": 5,
      "\"": 6,
      "#": 7,
      "$": 8,
      "%": 9,
      "&": 10,
      "'": 11,
      "(": 12,
      ")": 13,
      "*": 14,
      "+": 15,
      ",": 16,
      "-": 17,
      ".": 18,
      "/": 19,
      "0": 20,
      "1": 21,
      "2": 22,
      "3": 23,
      "4": 24,
      "5": 25,
      "6": 26,
      "7": 27,
      "8": 28,
      "9": 29,
      ":": 30,
      ";": 31,
      "<": 32,
      "=": 33,
      ">": 34,
      "?": 35,
      "@": 36,
      "A": 37,
      "B": 38,
      "C": 39,
      "D": 40,
      "E": 41,
      "F": 42,
      "G": 43,
      "H": 44,
      "I": 45,
      "J": 46,
      "K": 47,
      "L": 48,
      "M": 49,
      "N": 50,
      "O": 51,
      "P": 52,
      "Q": 53,
      "R": 54,
      "S": 55,
      "T": 56,
      "U": 57,
      "V": 58,
      "W": 59,
      "X": 60,
      "Y": 61,
      "Z": 62,
      "[": 63,
      "\\": 64,
      "]": 65,
      "^": 66,
      "_": 67,
      "`": 68,
      "a": 69,
      "b": 70,
      "c": 71,
      "d": 72,
      "e": 73,
      "f": 74,
      "g": 75,
      "h": 76,
      "i": 77,
      "j": 78,
      "k": 79,
      "l": 80,
      "m": 81,
      "n": 82,
      "o": 83,
      "p": 84,
      "q": 85,
      "r": 86,
      "s": 87,
      "t": 88,
      "u": 89,
      "v": 90,
      "w": 91,
      "x": 92,
      "y": 93,
      "z": 94,
      "{": 95,
      "|": 96,
      "}": 97,
      "~": 98,
      "¡": 99,
      "¢": 100,
      "£": 101,
      "¤": 102,
      "¥": 103,
      "¦": 104,
      "§": 105,
      "¨": 106,
      "©": 107,
      "ª": 108,
      "«": 109,
      "¬": 110,
      "®": 111,
      "¯": 112,
      "°": 113,
      "±": 114,
      "²": 115,
      "³": 116,
      "´": 117,
      "µ": 118,
      "¶": 119,
      "·": 120,
      "¸": 121,
      "¹": 122,
      "º": 123,
      "»": 124,
      "¼": 125,
      "½": 126,
      "¾": 127,
      "¿": 128,
      "À": 129,
      "Á": 130,
      "Â": 131,
      "Ã": 132,
      "Ä": 133,
      "Å": 134,
      "Æ": 135,
      "Ç": 136,
      "È": 137,
      "É": 138,
      "Ê": 139,
      "Ë": 140,
      "Ì": 141,
      "Í": 142,
      "Î": 143,
      "Ï": 144,
      "Ð": 145,
      "Ñ": 146,
      "Ò": 147,
      "Ó": 148,
      "Ô": 149,
      "Õ": 150,
      "Ö": 151,
      "×": 152,
      "Ø": 153,
      "Ù": 154,
      "Ú": 155,
      "Û": 156,
      "Ü": 157,
      "Ý": 158,
      "Þ": 159,
      "ß": 160,
      "à": 161,
      "á": 162,
      "â": 163,
      "ã": 164,
      "ä": 165,
      "å": 166,
      "æ": 167,
      "ç": 168,
      "è": 169,
      "é": 170,
      "ê": 171,
      "ë": 172,
      "ì": 173,
      "í": 174,
      "î": 175,
      "ï": 176,
      "ð": 177,
      "ñ": 178,
      "ò": 179,
      "ó": 180,
      "ô": 181,
      "õ": 182,
      "ö": 183,
      "÷": 184,
      "ø": 185,
      "ù": 186,
      "ú": 187,
      "û": 188,
      "ü": 189,
      "ý": 190,
      "þ": 191,
      "ÿ": 192,
      "Ā": 193,
      "ā": 194,
      "Ă": 195,
      "ă": 196,
      "Ą": 197,
      "ą": 198,
      "Ć": 199,
      "ć": 200,
      "Ĉ": 201,
      "ĉ": 202,
      "Ċ": 203,
      "ċ": 204,
      "Č": 205,
      "č": 206,
      "Ď": 207,
      "ď": 208,
      "Đ": 209,
      "đ": 210,
      "Ē": 211,
      "ē": 212,
      "Ĕ": 213,
      "ĕ": 214,
      "Ė": 215,
      "ė": 216,
      "Ę": 217,
      "ę": 218,
      "Ě": 219,
      "ě": 220,
      "Ĝ": 221,
      "ĝ": 222,
      "Ğ": 223,
      "ğ": 224,
      "Ġ": 225,
      "ġ": 226,
      "Ģ": 227,
      "ģ": 228,
      "Ĥ": 229,
      "ĥ": 230,
      "Ħ": 231,
      "ħ": 232,
      "Ĩ": 233,
      "ĩ": 234,
      "Ī": 235,
      "ī": 236,
      "Ĭ": 237,
      "ĭ": 238,
      "Į": 239,
      "į": 240,
      "İ": 241,
      "ı": 242,
      "Ĳ": 243,
      "ĳ": 244,
      "Ĵ": 245,
      "ĵ": 246,
      "Ķ": 247,
      "ķ": 248,
      "ĸ": 249,
      "Ĺ": 250,
      "ĺ": 251,
      "Ļ": 252,
      "ļ": 253,
      "Ľ": 254,
      "ľ": 255,
      "Ŀ": 256,
      "ŀ": 257,
      "Ł": 258,
      "ł": 259,
      "Ń": 260,
      "Ġt": 261,
      "he": 262,
      "Ġa": 263,
      "in": 264,
      "Ġw": 265,
      "Ġthe": 266,
      "ou": 267,
      "re": 268,
      "Ġs": 269,
      "on": 270,
      "ha": 271,
      "er": 272,
      "nd": 273,
      "Ġb": 274,
      "it": 275,
      "is": 276,
      "Ġm": 277,
      "Ġc": 278,
      "Ġo": 279,
      "Ġd": 280,
      "Ġf": 281,
      "ing": 282,
      "Ġto": 283,
      "ll": 284,
      "an": 285,
      "or": 286,
      "ed": 287,
      "Ġy": 288,
      "es": 289,
      "en": 290,
      "Ġp": 291,
      "hat": 292,
      "HI": 293,
      "Ġyou": 294,
      "ar": 295,
      "Ġg": 296,
      "CHI": 297,
      "Ġl": 298,
      "Ġand": 299,
      "Ġof": 300,
      "as": 301,
      "OT": 302,
      "MOT": 303,
      "Ġin": 304,
      "at": 305,
      "om": 306,
      "no": 307,
      "ĠI": 308,
      "Ġhe": 309,
      "Ġh": 310,
      "le": 311,
      "'s": 312,
      "Ġha": 313,
      "ay": 314,
      "ic": 315,
      "et": 316,
      "ve": 317,
      "Ġit": 318,
      "Ġth": 319,
      "Ġon": 320,
      "us": 321,
      "id": 322,
      "gh": 323,
      "Ġthat": 324,
      "Ġbe": 325,
      "al": 326,
      "Ġwas": 327,
      "ld": 328,
      "Ġe": 329,
      "Ġis": 330,
      "ut": 331,
      "ow": 332,
      "oo": 333,
      "Ġno": 334,
      "..": 335,
      "Ġ=": 336,
      "Ġwe": 337,
      "im": 338,
      "ver": 339,
      "ac": 340,
      "ke": 341,
      "ad": 342,
      "Ġn": 343,
      "'t": 344,
      "ot": 345,
      "ri": 346,
      "Ġre": 347,
      "se": 348,
      "ent": 349,
      "Ġfor": 350,
      "ir": 351,
      "ght": 352,
      "ĠS": 353,
      "am": 354,
      "ion": 355,
      "Ġst": 356,
      "ly": 357,
      "ĠM": 358,
      "st": 359,
      "Ġdo": 360,
      "Ġu": 361,
      "ĠT": 362,
      "out": 363,
      "Ġk": 364,
      "ro": 365,
      "Ġme": 366,
      "ith": 367,
      "her": 368,
      "ĠA": 369,
      "ĠC": 370,
      "Ġwith": 371,
      "all": 372,
      "ea": 373,
      "ome": 374,
      "ur": 375,
      "and": 376,
      "ch": 377,
      "Ġan": 378,
      "Ġli": 379,
      "Ġat": 380,
      "ter": 381,
      "Ġas": 382,
      "Ġwh": 383,
      "ill": 384,
      "ĠB": 385,
      "Ġse": 386,
      "ould": 387,
      "Ġgo": 388,
      "Ġnot": 389,
      "ce": 390,
      "ĠH": 391,
      "Ġhave": 392,
      "AT": 393,
      "Ġthis": 394,
      "il": 395,
      "now": 396,
      "xx": 397,
      "FAT": 398,
      "ell": 399,
      "ust": 400,
      "Ġher": 401,
      "...": 402,
      "if": 403,
      "un": 404,
      "ant": 405,
      "ct": 406,
      "Ġhis": 407,
      "Ġare": 408,
      "Ġknow": 409,
      "Ġone": 410,
      "ra": 411,
      "th": 412,
      "op": 413,
      "ĠP": 414,
      "ore": 415,
      "Ġthey": 416,
      "here": 417,
      "Ġwhat": 418,
      "Ġup": 419,
      "Ġshe": 420,
      "Ġsa": 421,
      "Ġne": 422,
      "Ġ1": 423,
      "Ġ\"": 424,
      "ook": 425,
      "Ġmy": 426,
      "um": 427,
      "Ġso": 428,
      "Ġall": 429,
      "rom": 430,
      "Ġj": 431,
      "Ġhad": 432,
      "Ġcan": 433,
      "Ġdon": 434,
      "our": 435,
      "hen": 436,
      "ge": 437,
      "pp": 438,
      "ie": 439,
      "âĢ": 440,
      "ĠW": 441,
      "eah": 442,
      "ĠD": 443,
      "Ġthere": 444,
      "Ġde": 445,
      "Ġyour": 446,
      "ĠR": 447,
      "ry": 448,
      "ain": 449,
      "ul": 450,
      "Ġr": 451,
      "ĠĠ": 452,
      "ol": 453,
      "ack": 454,
      "ood": 455,
      "Ġab": 456,
      "Ġlike": 457,
      "ĠG": 458,
      "Ġout": 459,
      "ight": 460,
      "Ġhim": 461,
      "ĠF": 462,
      "ake": 463,
      "Ġbut": 464,
      "art": 465,
      "Ġfrom": 466,
      "red": 467,
      "Ġal": 468,
      "el": 469,
      "Ġsh": 470,
      "Ġdid": 471,
      "ation": 472,
      "Ġpl": 473,
      "ab": 474,
      "Ġ2": 475,
      "han": 476,
      "very": 477,
      "one": 478,
      "ig": 479,
      "'re": 480,
      "You": 481,
      "The": 482,
      "est": 483,
      "'m": 484,
      "what": 485,
      "os": 486,
      "ĠN": 487,
      "ers": 488,
      "ess": 489,
      "em": 490,
      "right": 491,
      "ink": 492,
      "hi": 493,
      "ist": 494,
      "Ġwere": 495,
      "Ġget": 496,
      "ĠL": 497,
      "ĠE": 498,
      "ound": 499,
      "ĠJ": 500,
      "itt": 501,
      "ame": 502,
      "Ġby": 503,
      "ong": 504,
      "Ġsu": 505,
      "Ġsaid": 506,
      "ck": 507,
      "ind": 508,
      "na": 509,
      "ther": 510,
      "qu": 511,
      "Ġor": 512,
      "Ġwor": 513,
      "res": 514,
      "nt": 515,
      "Ġthem": 516,
      "ĠThe": 517,
      "ast": 518,
      "Ġabout": 519,
      "ive": 520,
      "Ġcom": 521,
      "Ġsome": 522,
      "ber": 523,
      "you": 524,
      "ard": 525,
      "oh": 526,
      "use": 527,
      "Ġsp": 528,
      "xxx": 529,
      "ep": 530,
      "ak": 531,
      "own": 532,
      "Ġv": 533,
      "Ġwant": 534,
      "Ġwho": 535,
      "ally": 536,
      "Ġcon": 537,
      "au": 538,
      "ate": 539,
      "Ġthink": 540,
      "ice": 541,
      "Ġjust": 542,
      "Ġwould": 543,
      "Ġhere": 544,
      "fe": 545,
      "yeah": 546,
      "ĠO": 547,
      "kay": 548,
      "'ll": 549,
      "ear": 550,
      "Ġsee": 551,
      "Ġany": 552,
      "od": 553,
      "ick": 554,
      "ime": 555,
      "ough": 556,
      "Ġman": 557,
      "ap": 558,
      "Ġtw": 559,
      "Ġif": 560,
      "ag": 561,
      "Ġex": 562,
      "Ġwhen": 563,
      "Ġ20": 564,
      "ittle": 565,
      "Ġ(": 566,
      "ich": 567,
      "Ġgot": 568,
      "hing": 569,
      "Ġ19": 570,
      "ort": 571,
      "Ġright": 572,
      "Ġsay": 573,
      "].": 574,
      "Ġlook": 575,
      "Ġwill": 576,
      "Ġus": 577,
      "ven": 578,
      "It": 579,
      "ine": 580,
      "Ġlittle": 581,
      ".\"": 582,
      "--": 583,
      "ĠHe": 584,
      "Ġ[": 585,
      "ide": 586,
      "IN": 587,
      "ous": 588,
      "ca": 589,
      "to": 590,
      "AR": 591,
      "ost": 592,
      "ĠK": 593,
      "Ġag": 594,
      "Ġnow": 595,
      "Ġpro": 596,
      "Ġtoo": 597,
      "int": 598,
      "ies": 599,
      "ity": 600,
      "way": 601,
      "Ġtime": 602,
      "Ġbeen": 603,
      "Ġpe": 604,
      "ite": 605,
      "Ġar": 606,
      "ĠIt": 607,
      "Ġback": 608,
      "Ġmore": 609,
      "Ġcould": 610,
      "ne": 611,
      "Ġthen": 612,
      "lf": 613,
      "Ġcl": 614,
      "Ġhas": 615,
      "Ġxxx": 616,
      "Ġgoing": 617,
      "Ġgood": 618,
      "Ġdown": 619,
      "ree": 620,
      "ace": 621,
      "uh": 622,
      "ose": 623,
      "Ġtwo": 624,
      "the": 625,
      "Ġtheir": 626,
      "Ġvery": 627,
      "are": 628,
      "MAR": 629,
      "Ġover": 630,
      "He": 631,
      "ish": 632,
      "reat": 633,
      "Ġro": 634,
      "Ġwhich": 635,
      "ove": 636,
      "And": 637,
      "Ġoff": 638,
      "ian": 639,
      "cause": 640,
      "end": 641,
      "Ġother": 642,
      "alk": 643,
      "ĠĠĠĠ": 644,
      "other": 645,
      "that": 646,
      "hy": 647,
      "Ġput": 648,
      "ure": 649,
      "Ġtr": 650,
      "Ġaf": 651,
      "ople": 652,
      "ĠU": 653,
      "Ġthing": 654,
      "ud": 655,
      "oy": 656,
      "we": 657,
      "ase": 658,
      "so": 659,
      "Ġbl": 660,
      "ft": 661,
      "augh": 662,
      "ond": 663,
      "Ġqu": 664,
      ",\"": 665,
      "ark": 666,
      "What": 667,
      "ment": 668,
      "omet": 669,
      "ty": 670,
      "ia": 671,
      "'ve": 672,
      "hed": 673,
      "orn": 674,
      "Ġle": 675,
      "Ġfe": 676,
      "my": 677,
      "Ġhow": 678,
      "pe": 679,
      "Ġpeople": 680,
      "INV": 681,
      "yes": 682,
      "onna": 683,
      "irst": 684,
      "ought": 685,
      "Ġbr": 686,
      "ho": 687,
      "ue": 688,
      "urn": 689,
      "ade": 690,
      "Ġinto": 691,
      "ary": 692,
      "ved": 693,
      "Ġcome": 694,
      "Ġgr": 695,
      "ater": 696,
      "Ġplay": 697,
      "Ġmake": 698,
      "Ġgonna": 699,
      "Ġcall": 700,
      "ble": 701,
      "ĠSt": 702,
      "age": 703,
      "Ġer": 704,
      "Ġway": 705,
      "ass": 706,
      "We": 707,
      "Ġday": 708,
      "Ġthan": 709,
      "iss": 710,
      "Ġwork": 711,
      "ord": 712,
      "ving": 713,
      "ci": 714,
      "Ġagain": 715,
      "Ġsomet": 716,
      "pl": 717,
      "be": 718,
      "ount": 719,
      "Ġtell": 720,
      "Ġmean": 721,
      "RO": 722,
      "Ġ'": 723,
      "laugh": 724,
      "oll": 725,
      "okay": 726,
      "Ġfirst": 727,
      "ff": 728,
      "Ġen": 729,
      "IS": 730,
      "Ġwhere": 731,
      "ran": 732,
      "ng": 733,
      "ire": 734,
      "self": 735,
      "mer": 736,
      "Ġam": 737,
      "wn": 738,
      "Ġafter": 739,
      "Ġtake": 740,
      "ves": 741,
      "ather": 742,
      "Ġwr": 743,
      "Ġthr": 744,
      "up": 745,
      "his": 746,
      "No": 747,
      "Ġpart": 748,
      "Ġbet": 749,
      "Ġlet": 750,
      "ĠV": 751,
      "Ġdoes": 752,
      "ach": 753,
      "uch": 754,
      "Oh": 755,
      "ĠY": 756,
      "Ġyear": 757,
      "ool": 758,
      "Ġgu": 759,
      "âĢĻ": 760,
      "Ġneed": 761,
      "Ġdis": 762,
      "Ġpr": 763,
      "Ġhapp": 764,
      "fore": 765,
      "Ġdidn": 766,
      "Ġevery": 767,
      "thing": 768,
      "ouse": 769,
      "ren": 770,
      "ps": 771,
      "Ġun": 772,
      "per": 773,
      "les": 774,
      "Ġonly": 775,
      "ub": 776,
      "SIS": 777,
      "But": 778,
      "laughs": 779,
      "Ġshould": 780,
      "pt": 781,
      "Ġour": 782,
      "day": 783,
      "nder": 784,
      "Ġmade": 785,
      "Ġsomething": 786,
      "hm": 787,
      "ull": 788,
      "Ġfl": 789,
      "act": 790,
      "ady": 791,
      "ĠShe": 792,
      "able": 793,
      "ress": 794,
      "âĢľ": 795,
      "Ġmuch": 796,
      "That": 797,
      "te": 798,
      "Ġcha": 799,
      "zz": 800,
      "og": 801,
      "oss": 802,
      "Ġpre": 803,
      "BRO": 804,
      "Ġte": 805,
      "man": 806,
      "Ġtalk": 807,
      "Ġlong": 808,
      "ory": 809,
      "Ġcar": 810,
      "Ġ201": 811,
      "ting": 812,
      "Ġwell": 813,
      "Ġco": 814,
      "irl": 815,
      "ions": 816,
      "ied": 817,
      "Ġhand": 818,
      "ated": 819,
      "Ġchi": 820,
      "ict": 821,
      "ang": 822,
      "Ġthese": 823,
      "av": 824,
      "Ġwent": 825,
      "add": 826,
      "Well": 827,
      "ix": 828,
      "Ġreally": 829,
      "Ġthrough": 830,
      "¿½": 831,
      "ï¿½": 832,
      "get": 833,
      "cc": 834,
      "Yeah": 835,
      "where": 836,
      "Ġim": 837,
      "Ġcomp": 838,
      "ile": 839,
      "uck": 840,
      "Ġbefore": 841,
      "Ġad": 842,
      "'d": 843,
      "Ġpo": 844,
      "Ġchild": 845,
      "ĠMr": 846,
      "Ġbecause": 847,
      "Ġnever": 848,
      "Ġold": 849,
      "Ġbig": 850,
      "ody": 851,
      "ise": 852,
      "Ġsha": 853,
      "anna": 854,
      "Ġthree": 855,
      "ug": 856,
      "Ġcame": 857,
      "Ġmo": 858,
      "Ġboy": 859,
      "Ġsc": 860,
      "Ġrem": 861,
      "li": 862,
      "Ġstill": 863,
      "?\"": 864,
      "Ġeat": 865,
      "Ġalso": 866,
      "ĠIn": 867,
      "Ġunder": 868,
      "Ġgreat": 869,
      "Ġke": 870,
      "Ġask": 871,
      "ful": 872,
      "Ġsm": 873,
      "Ġaway": 874,
      "Ġgirl": 875,
      "cl": 876,
      "So": 877,
      "Ġhel": 878,
      "ence": 879,
      "atch": 880,
      "Ġthought": 881,
      "ĠUn": 882,
      "Ġeven": 883,
      "ks": 884,
      "ons": 885,
      "do": 886,
      "ried": 887,
      "Ġact": 888,
      "ward": 889,
      "Ġapp": 890,
      "ip": 891,
      "iz": 892,
      "nother": 893,
      "und": 894,
      "ommy": 895,
      "Ġhome": 896,
      "Ġnew": 897,
      "Ġwanna": 898,
      "Ġlast": 899,
      "Ġper": 900,
      "Ġch": 901,
      "Ġhappen": 902,
      "Ġname": 903,
      "ect": 904,
      "land": 905,
      "ors": 906,
      "00": 907,
      "Ġcr": 908,
      "ember": 909,
      "Ġmay": 910,
      "ited": 911,
      "ath": 912,
      "UR": 913,
      "but": 914,
      "Ġdoing": 915,
      "Ġstart": 916,
      "ob": 917,
      "Ġturn": 918,
      "ates": 919,
      "old": 920,
      "ily": 921,
      "ock": 922,
      "Ġthings": 923,
      "riend": 924,
      "ah": 925,
      "ign": 926,
      "Ġmust": 927,
      "Ġthose": 928,
      "Ġhouse": 929,
      "Ġmany": 930,
      "âĢĿ": 931,
      "Ġbook": 932,
      ".]": 933,
      "Ġlea": 934,
      "Ġmother": 935,
      "chool": 936,
      "hes": 937,
      "Ġanother": 938,
      "ings": 939,
      "ny": 940,
      "ans": 941,
      "Ġcont": 942,
      "aby": 943,
      "ung": 944,
      "Ġgive": 945,
      "ĠCh": 946,
      "Ġhelp": 947,
      "Ġbu": 948,
      "Ġser": 949,
      "Ġfind": 950,
      "ious": 951,
      "ance": 952,
      "ait": 953,
      "ys": 954,
      "how": 955,
      "well": 956,
      "Ġhead": 957,
      "xt": 958,
      "lease": 959,
      "pen": 960,
      "ina": 961,
      "air": 962,
      "iv": 963,
      "ts": 964,
      "Ġtry": 965,
      "ave": 966,
      "ars": 967,
      "rain": 968,
      "Ġwon": 969,
      "Yes": 970,
      "igh": 971,
      "Ġown": 972,
      "Ġsec": 973,
      "Ġnight": 974,
      "oney": 975,
      "ĠAnd": 976,
      "rd": 977,
      "Ġcalled": 978,
      "She": 979,
      "Ġres": 980,
      "ĠĠĠĠĠĠĠĠ": 981,
      "Ġbel": 982,
      "oc": 983,
      "ail": 984,
      "Ġkind": 985,
      "Ġshow": 986,
      "Ġyears": 987,
      "Ġchan": 988,
      "aw": 989,
      "ild": 990,
      "ĠMar": 991,
      "Ġlove": 992,
      "Ġfriend": 993,
      "URS": 994,
      "Ġfour": 995,
      "huh": 996,
      "ert": 997,
      "body": 998,
      "ew": 999,
      "ĠChi": 1000,
      "Ġ3": 1001,
      "Ġfound": 1002,
      "Ġel": 1003,
      "ical": 1004,
      "aking": 1005,
      "Ġdone": 1006,
      "gg": 1007,
      "Ġbetter": 1008,
      "side": 1009,
      "This": 1010,
      "Ġend": 1011,
      "akes": 1012,
      "Ġmight": 1013,
      "Ġrec": 1014,
      "Ġbo": 1015,
      "Ġwhy": 1016,
      "als": 1017,
      "Ġread": 1018,
      "In": 1019,
      "Ġche": 1020,
      "ways": 1021,
      "ince": 1022,
      "Ġcomm": 1023,
      "ER": 1024,
      "Ġokay": 1025,
      "vers": 1026,
      "Ġbot": 1027,
      "ican": 1028,
      "Ġmin": 1029,
      "Ġplace": 1030,
      "Ġaround": 1031,
      "They": 1032,
      "for": 1033,
      "âĢĵ": 1034,
      "Ġsuch": 1035,
      "let": 1036,
      "Ġsl": 1037,
      "Ġfeel": 1038,
      "Ġroom": 1039,
      "Ġmost": 1040,
      "Ġschool": 1041,
      "port": 1042,
      "Ġatt": 1043,
      "There": 1044,
      "ident": 1045,
      "ces": 1046,
      "ever": 1047,
      "Ġgl": 1048,
      "Ġbeing": 1049,
      "Ġcount": 1050,
      "Ġtold": 1051,
      "Ġpres": 1052,
      "Ġdif": 1053,
      "Ġits": 1054,
      "Ġ202": 1055,
      "ds": 1056,
      "ĠBr": 1057,
      "Ġsupp": 1058,
      "amp": 1059,
      "Ġfather": 1060,
      "Ġsure": 1061,
      "rent": 1062,
      "ee": 1063,
      "Ġanything": 1064,
      "Ġlife": 1065,
      "Ġcare": 1066,
      "mp": 1067,
      "Ġdes": 1068,
      "Ġelse": 1069,
      "Ġkeep": 1070,
      "Ġcour": 1071,
      "led": 1072,
      "Ġfin": 1073,
      "ually": 1074,
      "ont": 1075,
      "Ġwater": 1076,
      "Ġbeg": 1077,
      "inn": 1078,
      "why": 1079,
      "mhm": 1080,
      "Ġnum": 1081,
      "ction": 1082,
      "row": 1083,
      "ream": 1084,
      "Ġsil": 1085,
      "uc": 1086,
      "ĠYou": 1087,
      "ĠThey": 1088,
      "Ġever": 1089,
      "Ġlot": 1090,
      "Ġsame": 1091,
      "Ġnext": 1092,
      "ult": 1093,
      "orry": 1094,
      "imes": 1095,
      "ĠAmer": 1096,
      "ump": 1097,
      "Ġear": 1098,
      "Ġdr": 1099,
      "ute": 1100,
      "Ġmen": 1101,
      "Ġalways": 1102,
      "de": 1103,
      "!\"": 1104,
      "Ġfive": 1105,
      "br": 1106,
      "Ġwhile": 1107,
      "Ġbec": 1108,
      "Ġsaw": 1109,
      "Ġra": 1110,
      "AN": 1111,
      "look": 1112,
      "Ġtook": 1113,
      "ations": 1114,
      "ens": 1115,
      "mber": 1116,
      "ĠBut": 1117,
      "Ġset": 1118,
      "ss": 1119,
      "who": 1120,
      "Ġbaby": 1121,
      "Ġopen": 1122,
      "Ġnice": 1123,
      "Ġpol": 1124,
      "ec": 1125,
      "Ġstr": 1126,
      "How": 1127,
      "rest": 1128,
      "Ġused": 1129,
      "ition": 1130,
      "Ġdoesn": 1131,
      "ling": 1132,
      "ye": 1133,
      "this": 1134,
      "can": 1135,
      "Ġseem": 1136,
      "ms": 1137,
      "ï¿½ï¿½": 1138,
      "If": 1139,
      "they": 1140,
      "Ġbre": 1141,
      "HE": 1142,
      "Ġwom": 1143,
      "Ġpret": 1144,
      "Ġleft": 1145,
      "Ġpie": 1146,
      "oot": 1147,
      "Ġbus": 1148,
      "ister": 1149,
      "Ġsw": 1150,
      "Ġfam": 1151,
      "vent": 1152,
      "Ġyeah": 1153,
      "Ġrun": 1154,
      "Ġmon": 1155,
      "Ġmag": 1156,
      "ational": 1157,
      "vel": 1158,
      "ounds": 1159,
      "Why": 1160,
      "cle": 1161,
      "ret": 1162,
      "Ġfar": 1163,
      "oun": 1164,
      "outh": 1165,
      "tern": 1166,
      "Ġworld": 1167,
      "Ġstop": 1168,
      "Ġcle": 1169,
      "gether": 1170,
      "Do": 1171,
      "Ġsix": 1172,
      "ĠUnited": 1173,
      "Ġunt": 1174,
      "Ġreal": 1175,
      "Ġum": 1176,
      "aught": 1177,
      "Ġ.": 1178,
      "Ġfun": 1179,
      "ished": 1180,
      "Ġele": 1181,
      "Ġmoney": 1182,
      "Ġuse": 1183,
      "CO": 1184,
      "undred": 1185,
      "Ġhard": 1186,
      "Ġkne": 1187,
      "there": 1188,
      "she": 1189,
      "ries": 1190,
      "Ġmom": 1191,
      "Ġnumber": 1192,
      "Ġsing": 1193,
      "Ġdiffe": 1194,
      "ness": 1195,
      "Ġstay": 1196,
      "Ġwee": 1197,
      "Ġhundred": 1198,
      "gr": 1199,
      "ower": 1200,
      "Ġph": 1201,
      "Ġbelie": 1202,
      "usic": 1203,
      "ellow": 1204,
      "ope": 1205,
      "Ġwar": 1206,
      "erson": 1207,
      "pect": 1208,
      "Ġob": 1209,
      "ins": 1210,
      "Ġacc": 1211,
      "ger": 1212,
      "Ġmar": 1213,
      "anc": 1214,
      "Ġdog": 1215,
      "Ġret": 1216,
      "Ġ200": 1217,
      "Ġblack": 1218,
      "Ġgi": 1219,
      "ween": 1220,
      "leep": 1221,
      "Ġstick": 1222,
      "ĠKing": 1223,
      "Ġbir": 1224,
      "Ġtogether": 1225,
      "Ġknown": 1226,
      "Ġhappened": 1227,
      "ES": 1228,
      "hank": 1229,
      "ton": 1230,
      "Ġac": 1231,
      "me": 1232,
      "ets": 1233,
      "Ġcourse": 1234,
      "Ġwait": 1235,
      "rist": 1236,
      "Ġenough": 1237,
      "Ġyoung": 1238,
      "leas": 1239,
      "ial": 1240,
      "ta": 1241,
      "orning": 1242,
      "Chi": 1243,
      "Ġsays": 1244,
      "Ġhear": 1245,
      "did": 1246,
      "Ġuntil": 1247,
      "ph": 1248,
      "Ġbest": 1249,
      "Ġdied": 1250,
      "Ġupon": 1251,
      "LD": 1252,
      "ĠMark": 1253,
      "io": 1254,
      "ĠNew": 1255,
      "Ġsecond": 1256,
      "rew": 1257,
      "Ġcol": 1258,
      "ĠEng": 1259,
      "Ġnothing": 1260,
      "tle": 1261,
      "Ġfr": 1262,
      "Ġeyes": 1263,
      "Ġbad": 1264,
      "Ġyes": 1265,
      "Ġbetween": 1266,
      "fta": 1267,
      "Ġsur": 1268,
      "Ġwalk": 1269,
      "not": 1270,
      "Ġdoor": 1271,
      "Ġthough": 1272,
      "Ġasked": 1273,
      "oup": 1274,
      "see": 1275,
      "ĠDe": 1276,
      "Now": 1277,
      "eak": 1278,
      "Ġmat": 1279,
      "uff": 1280,
      "ĠAmerican": 1281,
      "Ġsilver": 1282,
      "Ġquite": 1283,
      "ible": 1284,
      "Ġremember": 1285,
      "az": 1286,
      "ubl": 1287,
      "Ġstand": 1288,
      "Ġchildren": 1289,
      "ged": 1290,
      "Ġpoint": 1291,
      "Ġbit": 1292,
      "Ġbed": 1293,
      "Ġhimself": 1294,
      "\".": 1295,
      "Ġhafta": 1296,
      "Ġmorning": 1297,
      "Ġfall": 1298,
      "Ġchar": 1299,
      "Ġhold": 1300,
      "Ġside": 1301,
      "ject": 1302,
      "ures": 1303,
      "ĠAr": 1304,
      "uring": 1305,
      "ĠCha": 1306,
      "Ġsit": 1307,
      "Ġvo": 1308,
      "Ġrel": 1309,
      "Ġ4": 1310,
      "ired": 1311,
      "Ġplease": 1312,
      "Ġball": 1313,
      "aut": 1314,
      "Ġlight": 1315,
      "mb": 1316,
      "ĠFran": 1317,
      "put": 1318,
      "Ġkill": 1319,
      "Ġdist": 1320,
      "any": 1321,
      "ale": 1322,
      "ents": 1323,
      "Ġlist": 1324,
      "Okay": 1325,
      "EL": 1326,
      "Ġsmall": 1327,
      "Ġsorry": 1328,
      "Ġpass": 1329,
      "Ġwanted": 1330,
      "ollow": 1331,
      "Ġcoming": 1332,
      "Ġpick": 1333,
      "Ġ_": 1334,
      "med": 1335,
      "ched": 1336,
      "then": 1337,
      "ĠMiss": 1338,
      "ohn": 1339,
      "All": 1340,
      "Ġface": 1341,
      "addy": 1342,
      "Ġseen": 1343,
      "Ġagainst": 1344,
      "ork": 1345,
      "Ġknew": 1346,
      "vie": 1347,
      "Ġfew": 1348,
      "Ġboth": 1349,
      "ters": 1350,
      "une": 1351,
      "ten": 1352,
      "ĠAn": 1353,
      "uary": 1354,
      "Ġmind": 1355,
      "ross": 1356,
      "Ġwithout": 1357,
      "enc": 1358,
      "ĠStates": 1359,
      "Ġisn": 1360,
      "Ġonce": 1361,
      "ib": 1362,
      "Ġheard": 1363,
      "ex": 1364,
      "ape": 1365,
      "Ġ18": 1366,
      "Don": 1367,
      "iet": 1368,
      "Ġlooking": 1369,
      "Ġent": 1370,
      "Ġborn": 1371,
      "ank": 1372,
      "Ġstory": 1373,
      "Ġmil": 1374,
      "cha": 1375,
      "ING": 1376,
      "Ġtop": 1377,
      "Ġdifferent": 1378,
      "Ġbase": 1379,
      "oint": 1380,
      "),": 1381,
      "most": 1382,
      "ĠAl": 1383,
      "Ġeach": 1384,
      "ctor": 1385,
      "ning": 1386,
      "Ġhur": 1387,
      "Ġreg": 1388,
      "Ġstud": 1389,
      "Ġter": 1390,
      "Ġleave": 1391,
      "ics": 1392,
      "Ġcons": 1393,
      "Ġheart": 1394,
      "ffe": 1395,
      "wh": 1396,
      "raw": 1397,
      "enty": 1398,
      "ĠJan": 1399,
      "My": 1400,
      "ier": 1401,
      "aper": 1402,
      "oud": 1403,
      "Ġ199": 1404,
      "Ġtoday": 1405,
      "pr": 1406,
      "Ġmet": 1407,
      "Is": 1408,
      "ener": 1409,
      "mm": 1410,
      "Ġbro": 1411,
      "Ġyet": 1412,
      "Ġdec": 1413,
      "ĠThis": 1414,
      "ĠMrs": 1415,
      "stand": 1416,
      "Ġtable": 1417,
      "Ġsong": 1418,
      "Ġrest": 1419,
      "Ġwhole": 1420,
      "Ġlooked": 1421,
      "cial": 1422,
      "Ġgetting": 1423,
      "Ġpretty": 1424,
      "less": 1425,
      "Ġlater": 1426,
      "orth": 1427,
      "Ġhung": 1428,
      "Ġhat": 1429,
      "ason": 1430,
      "ating": 1431,
      "Ġhands": 1432,
      "reen": 1433,
      "Ġgave": 1434,
      "Ġperson": 1435,
      "Ġkid": 1436,
      "Ġuh": 1437,
      "ular": 1438,
      "Ġeverything": 1439,
      "Ġwatch": 1440,
      "ife": 1441,
      "Ġtalking": 1442,
      "Ġdri": 1443,
      "Ġeight": 1444,
      "its": 1445,
      "Ġnear": 1446,
      "Ġinv": 1447,
      "come": 1448,
      "Ġsoon": 1449,
      "ĠSo": 1450,
      "Ġcity": 1451,
      "Ġsleep": 1452,
      "Ġsk": 1453,
      "Ġfollow": 1454,
      "ames": 1455,
      "uss": 1456,
      "Ġate": 1457,
      "ĠZ": 1458,
      "Ġhigh": 1459,
      "Ġmagn": 1460,
      "Ġwasn": 1461,
      "Ġhuh": 1462,
      "go": 1463,
      "ready": 1464,
      "sh": 1465,
      "Ġtown": 1466,
      "Ġfamily": 1467,
      "ably": 1468,
      "onder": 1469,
      "Ġ5": 1470,
      "hip": 1471,
      "Ġfood": 1472,
      "Ġsent": 1473,
      "ney": 1474,
      "zzz": 1475,
      "Ġair": 1476,
      "Ġdays": 1477,
      "ĠWe": 1478,
      "co": 1479,
      "ision": 1480,
      "ĠTh": 1481,
      "Ġpict": 1482,
      "ertain": 1483,
      "Ġred": 1484,
      "don": 1485,
      "Ġdoll": 1486,
      "ĠWhat": 1487,
      "aster": 1488,
      "Ġhaving": 1489,
      ").": 1490,
      "der": 1491,
      "ĠInd": 1492,
      "OU": 1493,
      "Ġgoes": 1494,
      "Ġans": 1495,
      "Ġbeaut": 1496,
      "Ġsince": 1497,
      "Ġhalf": 1498,
      "Ġbelieve": 1499,
      "oor": 1500,
      "Ġwind": 1501,
      "osed": 1502,
      "la": 1503,
      "Ġmeet": 1504,
      "Hey": 1505,
      "Let": 1506,
      "vern": 1507,
      "ball": 1508,
      "Ġinst": 1509,
      "ines": 1510,
      "ĠâĢĵ": 1511,
      "Ġgirls": 1512,
      "St": 1513,
      "ĠIs": 1514,
      "ounc": 1515,
      "pped": 1516,
      "Ġshall": 1517,
      "ash": 1518,
      "ĠNo": 1519,
      "Ġround": 1520,
      "Come": 1521,
      "Ġfire": 1522,
      "Ġind": 1523,
      "ĠChrist": 1524,
      "iness": 1525,
      "den": 1526,
      "Not": 1527,
      "Ġlive": 1528,
      "Ġvoice": 1529,
      "Ġwrite": 1530,
      "Ġmove": 1531,
      "Ġgone": 1532,
      "Ġstarted": 1533,
      "wo": 1534,
      "ike": 1535,
      "Ġri": 1536,
      "arah": 1537,
      "Ġspo": 1538,
      "Ġquest": 1539,
      "ĠAs": 1540,
      "part": 1541,
      "uth": 1542,
      "LO": 1543,
      "sel": 1544,
      "Ġword": 1545,
      "Ġanim": 1546,
      "cept": 1547,
      "Ġtri": 1548,
      "ĠJohn": 1549,
      "Ġpop": 1550,
      "Be": 1551,
      "eng": 1552,
      "ĠEd": 1553,
      "Ġbrother": 1554,
      "Ġerm": 1555,
      "ĠRe": 1556,
      "Ġbring": 1557,
      "Ġlo": 1558,
      "orrow": 1559,
      "ĠBe": 1560,
      "elt": 1561,
      "Ġalready": 1562,
      "Ġsaying": 1563,
      "aj": 1564,
      "Ġtrain": 1565,
      "Ġson": 1566,
      "Ġcat": 1567,
      "Ġplan": 1568,
      "Ġthir": 1569,
      "ither": 1570,
      "ully": 1571,
      "ual": 1572,
      "Ġsy": 1573,
      "dam": 1574,
      "ĠMommy": 1575,
      "Ġhor": 1576,
      "Ġhour": 1577,
      "Ġdire": 1578,
      "Ġca": 1579,
      "Ġ198": 1580,
      "ĠThere": 1581,
      "ised": 1582,
      "Ġid": 1583,
      "cted": 1584,
      "Mommy": 1585,
      "aid": 1586,
      "Ġfif": 1587,
      "Ġwrong": 1588,
      "ote": 1589,
      "fter": 1590,
      "lish": 1591,
      "ern": 1592,
      "Ġmaking": 1593,
      "ery": 1594,
      "Ġcap": 1595,
      "Ġdrink": 1596,
      "ĠGod": 1597,
      "aken": 1598,
      "iful": 1599,
      "Ġhungry": 1600,
      "Ġcountry": 1601,
      "ustr": 1602,
      "Ġready": 1603,
      "ĠPr": 1604,
      "On": 1605,
      "Ġpiece": 1606,
      "clud": 1607,
      "Ġbuild": 1608,
      "wards": 1609,
      "app": 1610,
      "Ġdear": 1611,
      "Ġunderstand": 1612,
      "ivers": 1613,
      "wer": 1614,
      "Ġbreak": 1615,
      "ison": 1616,
      "ield": 1617,
      "Ġtrying": 1618,
      "ted": 1619,
      "Ġfriends": 1620,
      "COL": 1621,
      "Ġlar": 1622,
      "Ġalong": 1623,
      "Ġdat": 1624,
      "Ġfight": 1625,
      "ĠâĢľ": 1626,
      "Ġwonder": 1627,
      "Ġmeans": 1628,
      "ax": 1629,
      "Ġcent": 1630,
      "When": 1631,
      "Ġmiss": 1632,
      "ues": 1633,
      "Ġreturn": 1634,
      "Ġfoot": 1635,
      "ober": 1636,
      "UN": 1637,
      "Ġimp": 1638,
      "Ã©": 1639,
      "Ġsub": 1640,
      "ered": 1641,
      "Ġlaugh": 1642,
      "aces": 1643,
      "Ġsound": 1644,
      "Ġcut": 1645,
      "Ġalmost": 1646,
      "Ġbas": 1647,
      "Ġsort": 1648,
      "ities": 1649,
      "Ġbecame": 1650,
      "\",": 1651,
      "ĠGer": 1652,
      "ĠSc": 1653,
      "Ġhot": 1654,
      "19": 1655,
      "Just": 1656,
      "Ġeas": 1657,
      "Ġland": 1658,
      "eth": 1659,
      "Ġage": 1660,
      "aul": 1661,
      "ĠRoss": 1662,
      "Ġmoment": 1663,
      "Ġgame": 1664,
      "ped": 1665,
      "Ġwoman": 1666,
      "omm": 1667,
      "Ġwouldn": 1668,
      "ative": 1669,
      "Ġwhe": 1670,
      "Ġbegan": 1671,
      "Ġtra": 1672,
      "by": 1673,
      "ON": 1674,
      "ury": 1675,
      "ush": 1676,
      "Ġ6": 1677,
      "Ġ7": 1678,
      "Ġpaper": 1679,
      "ows": 1680,
      "cess": 1681,
      "isit": 1682,
      "Ġjo": 1683,
      "uhhuh": 1684,
      "Ġlead": 1685,
      "alright": 1686,
      "ined": 1687,
      "Ġguy": 1688,
      "EN": 1689,
      "ric": 1690,
      "----": 1691,
      "Ġ8": 1692,
      "Ġadd": 1693,
      "ants": 1694,
      "Ġinte": 1695,
      "ĠSp": 1696,
      "Ġactually": 1697,
      "Ġref": 1698,
      "Ġspeak": 1699,
      "aybe": 1700,
      "Ġtre": 1701,
      "ital": 1702,
      "Ġproble": 1703,
      "âĢĺ": 1704,
      "du": 1705,
      "orm": 1706,
      "Ġdeath": 1707,
      "ony": 1708,
      "ken": 1709,
      "Ġrep": 1710,
      "Ġidea": 1711,
      "Ġfore": 1712,
      "Look": 1713,
      "rog": 1714,
      "Ġguys": 1715,
      "Ġtwenty": 1716,
      "Ġass": 1717,
      "Ġ197": 1718,
      ".âĢĿ": 1719,
      "Ġint": 1720,
      "ene": 1721,
      "rs": 1722,
      "rop": 1723,
      "ĠCount": 1724,
      "Ġhum": 1725,
      "Ġparty": 1726,
      "Ġguess": 1727,
      "Ġcup": 1728,
      "Ġlost": 1729,
      "Ġprom": 1730,
      "ĠTHE": 1731,
      "Ġstuff": 1732,
      "Ġpresent": 1733,
      "bably": 1734,
      "ru": 1735,
      "tain": 1736,
      "Ġposs": 1737,
      "Ġwhite": 1738,
      "Ġturned": 1739,
      "Ġbeautiful": 1740,
      "Then": 1741,
      "Ġsign": 1742,
      "ÃŃ": 1743,
      "Ġten": 1744,
      "Ġrecord": 1745,
      "Ġlooks": 1746,
      "Ġfine": 1747,
      "Ġfact": 1748,
      "Ġbrought": 1749,
      "Ġphone": 1750,
      "reet": 1751,
      "Ġcoll": 1752,
      "ept": 1753,
      "ring": 1754,
      "Ġwords": 1755,
      "ages": 1756,
      "ze": 1757,
      "Ġcertain": 1758,
      "Ġtele": 1759,
      "got": 1760,
      "AI": 1761,
      "ouch": 1762,
      "Ġduring": 1763,
      "Ġpubl": 1764,
      "Ġyellow": 1765,
      "eter": 1766,
      "Ġtimes": 1767,
      "olly": 1768,
      "ouble": 1769,
      "Ġbox": 1770,
      "Ġinterest": 1771,
      "Ġcomes": 1772,
      "ĠĠĠĠĠĠĠĠĠĠĠĠĠĠĠĠ": 1773,
      "Ġlear": 1774,
      "Ġconf": 1775,
      "kes": 1776,
      "ĠMot": 1777,
      "Ġaw": 1778,
      "ster": 1779,
      "Ġpolit": 1780,
      "Ġfull": 1781,
      "Ġweek": 1782,
      "Ġmonth": 1783,
      "Ġclose": 1784,
      "Ġpay": 1785,
      "Ġsun": 1786,
      "ese": 1787,
      "urs": 1788,
      "Ġteam": 1789,
      "Ġ9": 1790,
      "unch": 1791,
      "Ġplayed": 1792,
      "Ġexc": 1793,
      "hey": 1794,
      "ĠEnglish": 1795,
      "Ġpain": 1796,
      "ief": 1797,
      "ying": 1798,
      "Ġplaying": 1799,
      "Where": 1800,
      "ists": 1801,
      "Are": 1802,
      "ey": 1803,
      "Ġsister": 1804,
      "Ġmusic": 1805,
      "ared": 1806,
      "Ġhappy": 1807,
      "Ġoh": 1808,
      "Ġboys": 1809,
      "Ġmatter": 1810,
      "Ġtaken": 1811,
      "Ġjob": 1812,
      "NA": 1813,
      "ĠPh": 1814,
      "Ġdel": 1815,
      "Did": 1816,
      "leased": 1817,
      "GLO": 1818,
      "Ġi": 1819,
      "unt": 1820,
      "Thank": 1821,
      "âĢĶ": 1822,
      "airs": 1823,
      "ama": 1824,
      "Who": 1825,
      "Ġable": 1826,
      "Ġwand": 1827,
      "Ġmovie": 1828,
      "ead": 1829,
      "Ġbear": 1830,
      "Ġhope": 1831,
      "Th": 1832,
      "ĠAt": 1833,
      "ĠFl": 1834,
      "Ġrock": 1835,
      "ĠFor": 1836,
      "fully": 1837,
      ",âĢĿ": 1838,
      "bb": 1839,
      "Ġinclud": 1840,
      "Ġlisten": 1841,
      "read": 1842,
      "Ġext": 1843,
      "key": 1844,
      "gan": 1845,
      "ned": 1846,
      "ats": 1847,
      "Ġminute": 1848,
      "more": 1849,
      "amed": 1850,
      "Ġmed": 1851,
      "room": 1852,
      "Ġwrit": 1853,
      "MEL": 1854,
      "Ġfell": 1855,
      "Ġinc": 1856,
      "Ġherself": 1857,
      "ĠGr": 1858,
      "ming": 1859,
      "Ġdress": 1860,
      "Ġthank": 1861,
      "Ġking": 1862,
      "Ġdead": 1863,
      "Ġpoor": 1864,
      "Ġdisc": 1865,
      "hind": 1866,
      "Ġwants": 1867,
      "Ġegg": 1868,
      "Ġfelt": 1869,
      "ĠQ": 1870,
      "Ġmyself": 1871,
      "umb": 1872,
      "ole": 1873,
      "icha": 1874,
      "Ġlaw": 1875,
      "Ġart": 1876,
      "Ġcir": 1877,
      "Ġmagnet": 1878,
      "Ġ196": 1879,
      "Ġsat": 1880,
      "ided": 1881,
      "Er": 1882,
      "ple": 1883,
      "Ġinter": 1884,
      "men": 1885,
      "utes": 1886,
      "olog": 1887,
      "Ġseemed": 1888,
      "just": 1889,
      "son": 1890,
      "used": 1891,
      "idd": 1892,
      "Ġletter": 1893,
      "Ġcouldn": 1894,
      "Ġcontin": 1895,
      "rench": 1896,
      "Can": 1897,
      "Ġago": 1898,
      "eptember": 1899,
      "Ġsim": 1900,
      "Ġbar": 1901,
      "ises": 1902,
      "ĠCl": 1903,
      "Ġhair": 1904,
      "like": 1905,
      "Ġmakes": 1906,
      "Ġoffic": 1907,
      "Ġlate": 1908,
      "ner": 1909,
      "Ġpounds": 1910,
      "Ġsir": 1911,
      "Ġspe": 1912,
      "rying": 1913,
      "itc": 1914,
      "Ġleg": 1915,
      "bum": 1916,
      "Ġ10": 1917,
      "Ġsomeone": 1918,
      "Ġmaybe": 1919,
      "Ġgener": 1920,
      "ator": 1921,
      "Ġblue": 1922,
      "haps": 1923,
      "selves": 1924,
      "ĠCounty": 1925,
      "Ġgotta": 1926,
      "ĠAp": 1927,
      "Ġloc": 1928,
      "ific": 1929,
      "Ġfront": 1930,
      "oub": 1931,
      "ĠThat": 1932,
      "Ġchair": 1933,
      "Ġ,": 1934,
      "bo": 1935,
      "Ġrather": 1936,
      "gin": 1937,
      "born": 1938,
      "ĠCar": 1939,
      "Right": 1940,
      "Ġclear": 1941,
      "OR": 1942,
      "Ġlived": 1943,
      "Ġgovern": 1944,
      "ution": 1945,
      "ousand": 1946,
      "Ġfloor": 1947,
      "Ġbusiness": 1948,
      "itting": 1949,
      "ides": 1950,
      "inner": 1951,
      "head": 1952,
      "Ġwood": 1953,
      "ĠAll": 1954,
      "Ġpri": 1955,
      "Ġbehind": 1956,
      "sp": 1957,
      "Ġstrong": 1958,
      "Ġste": 1959,
      "Ġstate": 1960,
      "ĠHer": 1961,
      "Ġbirth": 1962,
      "Ġquestion": 1963,
      "oes": 1964,
      "ĠSeptember": 1965,
      "ians": 1966,
      "Ġimport": 1967,
      "Ġless": 1968,
      "ati": 1969,
      "ize": 1970,
      "Ġwomen": 1971,
      "Ġshort": 1972,
      "ments": 1973,
      "ized": 1974,
      "Ġminutes": 1975,
      "Ġdeal": 1976,
      "Ġev": 1977,
      "ĠBl": 1978,
      "ured": 1979,
      "ĠThen": 1980,
      "nina": 1981,
      "fect": 1982,
      "Ġed": 1983,
      "ĠHis": 1984,
      "Ġswe": 1985,
      "Ġgreen": 1986,
      "ense": 1987,
      "iversity": 1988,
      "ĠGerman": 1989,
      "ik": 1990,
      "Ġinside": 1991,
      "Ġcolor": 1992,
      "Ġhaven": 1993,
      "een": 1994,
      "Ġtrue": 1995,
      "sing": 1996,
      "ald": 1997,
      "Ġthousand": 1998,
      "Ġprobably": 1999,
      "Ġ2022": 2000,
      "ĠFrance": 2001,
      "ĠJanuary": 2002,
      "Ġlady": 2003,
      "Ġalone": 2004,
      "uro": 2005,
      "Ġ194": 2006,
      "Ġoutside": 2007,
      "ham": 2008,
      "atur": 2009,
      "ril": 2010,
      "Ġserv": 2011,
      "ention": 2012,
      "ford": 2013,
      "Ġcase": 2014,
      "Ġpicture": 2015,
      "aughter": 2016,
      "As": 2017,
      "Ġseven": 2018,
      "gy": 2019,
      "uly": 2020,
      "Ġcur": 2021,
      "ane": 2022,
      "Ġpower": 2023,
      "ĠCan": 2024,
      "Ġquick": 2025,
      "Ġ195": 2026,
      "Ġcook": 2027,
      "Ġes": 2028,
      "Ġfrog": 2029,
      "ones": 2030,
      "Ġtape": 2031,
      "ety": 2032,
      "pill": 2033,
      "ley": 2034,
      "Ġran": 2035,
      "Ġalbum": 2036,
      "Good": 2037,
      "ĠHow": 2038,
      "ugust": 2039,
      "At": 2040,
      "ism": 2041,
      "morrow": 2042,
      "Ġmine": 2043,
      "AL": 2044,
      "Ġcreat": 2045,
      "ider": 2046,
      "Ġroad": 2047,
      "Ġgrand": 2048,
      "erv": 2049,
      "els": 2050,
      "Ġlay": 2051,
      "RI": 2052,
      "Ġmilk": 2053,
      "Ġyourself": 2054,
      "Ġchange": 2055,
      "Ġem": 2056,
      "Ġsqu": 2057,
      "orld": 2058,
      "ears": 2059,
      "ĠBrit": 2060,
      "erc": 2061,
      "Ġhon": 2062,
      "arent": 2063,
      "Ġpull": 2064,
      "aterpill": 2065,
      "Ġpar": 2066,
      "ĠOn": 2067,
      "ĠSarah": 2068,
      "Ġexpl": 2069,
      "CHILD": 2070,
      "rian": 2071,
      "Ġtaking": 2072,
      "oth": 2073,
      "Ġprot": 2074,
      "range": 2075,
      "yep": 2076,
      "rap": 2077,
      "eor": 2078,
      "rit": 2079,
      "20": 2080,
      "mother": 2081,
      "Ġgiven": 2082,
      "Al": 2083,
      "ĠMay": 2084,
      "yup": 2085,
      "Ġmain": 2086,
      "when": 2087,
      "Ġwin": 2088,
      "Ġdark": 2089,
      "ches": 2090,
      "because": 2091,
      "Ġdream": 2092,
      "Ġoften": 2093,
      "lo": 2094,
      "form": 2095,
      "ĠMarch": 2096,
      "Ġwish": 2097,
      "ĠPar": 2098,
      "Ġmark": 2099,
      "Ġbody": 2100,
      "Ġfifty": 2101,
      "Ġarea": 2102,
      "angu": 2103,
      "Ġtrans": 2104,
      "ĠOh": 2105,
      "Ġones": 2106,
      "Ġprof": 2107,
      "ĠYork": 2108,
      "point": 2109,
      "Ġfeet": 2110,
      "che": 2111,
      "ked": 2112,
      "Ġsal": 2113,
      "ilt": 2114,
      "iously": 2115,
      "Ġwife": 2116,
      "Ġfunny": 2117,
      "GAI": 2118,
      "Ġhist": 2119,
      "ĠWill": 2120,
      "ma": 2121,
      "ctober": 2122,
      "Ġchildes": 2123,
      "CHILDES": 2124,
      "Go": 2125,
      "bs": 2126,
      "ices": 2127,
      "For": 2128,
      "Ġliving": 2129,
      "Ġhurt": 2130,
      "Ġleast": 2131,
      "enn": 2132,
      "Ġform": 2133,
      "cent": 2134,
      "ĠAugust": 2135,
      "good": 2136,
      "aterpillar": 2137,
      "fort": 2138,
      "ĠLe": 2139,
      "ipp": 2140,
      "ĠFrench": 2141,
      "Ġworking": 2142,
      "aur": 2143,
      "Ġpu": 2144,
      "Ġcold": 2145,
      "GR": 2146,
      "fl": 2147,
      "Mom": 2148,
      "Ġlarge": 2149,
      "Ġfav": 2150,
      "Ġtried": 2151,
      "rey": 2152,
      "rem": 2153,
      "Ġmill": 2154,
      "icip": 2155,
      "Ġnamed": 2156,
      "iam": 2157,
      "mas": 2158,
      "ĠFr": 2159,
      "ĠPhil": 2160,
      "rence": 2161,
      "Ġhorse": 2162,
      "ĠWorld": 2163,
      "ately": 2164,
      "Ġfig": 2165,
      "ls": 2166,
      "Ġbuy": 2167,
      "Ġreason": 2168,
      "Ġcho": 2169,
      "ummer": 2170,
      "ining": 2171,
      "ara": 2172,
      "Ġanswer": 2173,
      "Ġfair": 2174,
      "ards": 2175,
      "Ġ-": 2176,
      "vision": 2177,
      "ĠAdam": 2178,
      "Ġexpect": 2179,
      "sc": 2180,
      "ional": 2181,
      "ently": 2182,
      "Ġtree": 2183,
      "Ġbutter": 2184,
      "rict": 2185,
      "Ġwear": 2186,
      "aim": 2187,
      "Ġpast": 2188,
      "Ġothers": 2189,
      "RE": 2190,
      "ĠWhen": 2191,
      "ww": 2192,
      "hold": 2193,
      "Ġgrow": 2194,
      "Ġocc": 2195,
      "Ġdraw": 2196,
      "alth": 2197,
      "Ġline": 2198,
      "Ġeither": 2199,
      "Ġlives": 2200,
      "Ġimportant": 2201,
      "Ġsea": 2202,
      "Ġlangu": 2203,
      "itten": 2204,
      "Ġclass": 2205,
      "ament": 2206,
      "ĠOctober": 2207,
      "ĠApril": 2208,
      "Ġbat": 2209,
      "bl": 2210,
      "ĠFe": 2211,
      "Ġadv": 2212,
      "rie": 2213,
      "Ġmember": 2214,
      "Ġattack": 2215,
      "ature": 2216,
      "com": 2217,
      "ï¿½ï¿½ï¿½ï¿½": 2218,
      "Ġmess": 2219,
      "avid": 2220,
      "Ġtill": 2221,
      "âĻ": 2222,
      "Ġreport": 2223,
      "Ġsend": 2224,
      "raid": 2225,
      "Ġrece": 2226,
      "000": 2227,
      "ai": 2228,
      "arch": 2229,
      "ula": 2230,
      "oe": 2231,
      "ĠPro": 2232,
      "âĻª": 2233,
      "Ġsold": 2234,
      "Ġkids": 2235,
      "Ġgra": 2236,
      "Ġblock": 2237,
      "Ġ17": 2238,
      "Ġcompany": 2239,
      "Ġtea": 2240,
      "ĠSw": 2241,
      "Ġkilled": 2242,
      "gue": 2243,
      "Your": 2244,
      "osp": 2245,
      "Ġfree": 2246,
      "ained": 2247,
      "ement": 2248,
      "Ġglad": 2249,
      "Ġbecome": 2250,
      "Ġanimals": 2251,
      "Ġorder": 2252,
      "Ġconst": 2253,
      "Ġexp": 2254,
      "ĠHar": 2255,
      "Ġquiet": 2256,
      "ality": 2257,
      "Ġacross": 2258,
      "AS": 2259,
      "Ġcamp": 2260,
      "Ġpur": 2261,
      "Ġheld": 2262,
      "Ġamong": 2263,
      "Ġearly": 2264,
      "icks": 2265,
      "Ġdro": 2266,
      "Ġcried": 2267,
      "duc": 2268,
      "Re": 2269,
      "Ġsn": 2270,
      "ĠWar": 2271,
      "CH": 2272,
      "Ġjump": 2273,
      "ges": 2274,
      "Ġteac": 2275,
      "ĠBro": 2276,
      "Ġmoon": 2277,
      "Ġmis": 2278,
      "Ġthinking": 2279,
      "To": 2280,
      "Ġvisit": 2281,
      "Ġ2017": 2282,
      "Ġobject": 2283,
      "ffee": 2284,
      "Ġstar": 2285,
      "ler": 2286,
      "ached": 2287,
      "Ġworked": 2288,
      "ica": 2289,
      "Please": 2290,
      "ĠEuro": 2291,
      "Ġtoys": 2292,
      "ened": 2293,
      "Ġproblem": 2294,
      "Ġreleased": 2295,
      "Ġgets": 2296,
      "Ġsoft": 2297,
      "Ġgroup": 2298,
      "Ġwall": 2299,
      "itty": 2300,
      "Ġfast": 2301,
      "ĠRuss": 2302,
      "Ġcor": 2303,
      "Ġ15": 2304,
      "Ġbirthday": 2305,
      "Ġnoise": 2306,
      "aced": 2307,
      "iddle": 2308,
      "ĠUniversity": 2309,
      "HS": 2310,
      "Ġrepl": 2311,
      "Ġ193": 2312,
      "Ġill": 2313,
      "ott": 2314,
      "Ġclean": 2315,
      "dy": 2316,
      "ived": 2317,
      "Ġband": 2318,
      "illy": 2319,
      "Ġopp": 2320,
      "stem": 2321,
      "har": 2322,
      "One": 2323,
      "laughing": 2324,
      "Ġnine": 2325,
      "Ġafraid": 2326,
      "Ġmarried": 2327,
      "Ġcheck": 2328,
      "ĠRep": 2329,
      "dden": 2330,
      "two": 2331,
      "Ġfing": 2332,
      "Ġins": 2333,
      "Ġsometimes": 2334,
      "urch": 2335,
      "Ġtrouble": 2336,
      "inning": 2337,
      "Ġsingle": 2338,
      "ility": 2339,
      "Ġdem": 2340,
      "Ġcompet": 2341,
      "entle": 2342,
      "ĠMan": 2343,
      "raz": 2344,
      "Ġadm": 2345,
      "Ġbooks": 2346,
      "music": 2347,
      "Ġfinished": 2348,
      "Mark": 2349,
      "Because": 2350,
      "king": 2351,
      "ĠCon": 2352,
      "Ġ12": 2353,
      "owed": 2354,
      "AUN": 2355,
      "Ġfly": 2356,
      "ĠGu": 2357,
      "Ġtomorrow": 2358,
      "ĠIf": 2359,
      "ĠJe": 2360,
      "fic": 2361,
      "Ġhit": 2362,
      "Ġ16": 2363,
      "Ġpos": 2364,
      "ĠItal": 2365,
      "oman": 2366,
      "play": 2367,
      "Ġce": 2368,
      "cient": 2369,
      "Ġton": 2370,
      "ering": 2371,
      "Ġchance": 2372,
      "nock": 2373,
      "Ġsudden": 2374,
      "Ġfix": 2375,
      "Ġeating": 2376,
      "Ġsever": 2377,
      "band": 2378,
      "Ġresp": 2379,
      "iver": 2380,
      "Ġdaughter": 2381,
      "ĠPaul": 2382,
      "ĠTo": 2383,
      "ically": 2384,
      "Ġvill": 2385,
      "ĠEngland": 2386,
      "ĠGeor": 2387,
      "Ġkept": 2388,
      "Mm": 2389,
      "hanks": 2390,
      "Ġpublic": 2391,
      "ician": 2392,
      "Ġgovernment": 2393,
      "Ġeng": 2394,
      "resident": 2395,
      "iny": 2396,
      "ging": 2397,
      "Ġforget": 2398,
      "'.": 2399,
      "Mr": 2400,
      "phan": 2401,
      "Ġbag": 2402,
      "ox": 2403,
      "ana": 2404,
      "night": 2405,
      "eared": 2406,
      "Ġthemselves": 2407,
      "ode": 2408,
      "itchen": 2409,
      "ising": 2410,
      "Here": 2411,
      "ĠMin": 2412,
      "ĠGo": 2413,
      "Ġprov": 2414,
      "ĠDon": 2415,
      "Ġsweet": 2416,
      "Ġnin": 2417,
      "Ġtoy": 2418,
      "anger": 2419,
      "Ġcorn": 2420,
      "Ġz": 2421,
      "Ġsca": 2422,
      "owers": 2423,
      "Ġmot": 2424,
      "ories": 2425,
      "Ġmonths": 2426,
      "ĠBar": 2427,
      "Ġseveral": 2428,
      "Ġstore": 2429,
      "Ġwithin": 2430,
      "Ġdepart": 2431,
      "bed": 2432,
      "Ġnational": 2433,
      "Ġground": 2434,
      "IT": 2435,
      "Ġpot": 2436,
      "Ġwindow": 2437,
      "Ġsurpr": 2438,
      "Ġmur": 2439,
      "Ġwa": 2440,
      "Ġevent": 2441,
      "idge": 2442,
      "LE": 2443,
      "Ġdinner": 2444,
      "ajor": 2445,
      "Ġgold": 2446,
      "Ġeye": 2447,
      "ello": 2448,
      "ĠDr": 2449,
      "ains": 2450,
      "ĠYOU": 2451,
      "velop": 2452,
      "EX": 2453,
      "Ġkitchen": 2454,
      "ĠâĢĺ": 2455,
      "Ġfish": 2456,
      "does": 2457,
      "Ġice": 2458,
      "ĠChristmas": 2459,
      "ued": 2460,
      "ĠTO": 2461,
      "Ross": 2462,
      "]?": 2463,
      "Ġmouth": 2464,
      "ĠJuly": 2465,
      "Ġstood": 2466,
      "ĠBen": 2467,
      "Ġfil": 2468,
      "Ġgoin": 2469,
      "Ġknows": 2470,
      "oon": 2471,
      "overed": 2472,
      "Ġtouch": 2473,
      "ĠDaddy": 2474,
      "ĠBritish": 2475,
      "iding": 2476,
      "ĠYeah": 2477,
      "iron": 2478,
      "ovember": 2479,
      "ĠChar": 2480,
      ",--": 2481,
      "Ġbath": 2482,
      "Ġrain": 2483,
      "Ġcoffee": 2484,
      "ĠEurope": 2485,
      "iday": 2486,
      "gram": 2487,
      "ĠCity": 2488,
      "Ġclot": 2489,
      "actly": 2490,
      "erry": 2491,
      "Ġgun": 2492,
      "Ġorgan": 2493,
      "Ġ?": 2494,
      "bruary": 2495,
      "Ġhors": 2496,
      "points": 2497,
      "cember": 2498,
      "Ġwhether": 2499,
      "An": 2500,
      "col": 2501,
      "nes": 2502,
      "Ġforgot": 2503,
      "ude": 2504,
      "with": 2505,
      "ĠCol": 2506,
      "Ġabove": 2507,
      "Ġrunning": 2508,
      "Ġtem": 2509,
      "Ġcaterpillar": 2510,
      "Ah": 2511,
      "Ġarm": 2512,
      "Ġ11": 2513,
      ".'": 2514,
      "teen": 2515,
      "aint": 2516,
      "ccess": 2517,
      "Ġ2021": 2518,
      "Ġeasy": 2519,
      "Ġmist": 2520,
      "Ġexper": 2521,
      "Ġseries": 2522,
      "Ġtreat": 2523,
      "con": 2524,
      "oof": 2525,
      "urg": 2526,
      "Ġsomebody": 2527,
      "Every": 2528,
      "Ġblood": 2529,
      "Ġsitting": 2530,
      "Ġpleas": 2531,
      "Ġdoctor": 2532,
      "ract": 2533,
      "ĠYes": 2534,
      "Ġcross": 2535,
      "Ġlonger": 2536,
      "Ġwrote": 2537,
      "irt": 2538,
      "Ġty": 2539,
      "ĠPe": 2540,
      "Ġsystem": 2541,
      "hin": 2542,
      "Ġleng": 2543,
      "ĠMother": 2544,
      "Ġcomple": 2545,
      "yl": 2546,
      "HV": 2547,
      "Ġpage": 2548,
      "Ġhoney": 2549,
      "ird": 2550,
      "Ġseems": 2551,
      "Ġgentle": 2552,
      "ĠDavid": 2553,
      "que": 2554,
      "was": 2555,
      "Ġfa": 2556,
      "Ġspecial": 2557,
      "Ġest": 2558,
      "Ġ2019": 2559,
      "Ġhuman": 2560,
      "thank": 2561,
      "Ġhop": 2562,
      "LLD": 2563,
      "HSLLD": 2564,
      "dom": 2565,
      "Ġoffice": 2566,
      "Ġinde": 2567,
      "Ġdef": 2568,
      "mpions": 2569,
      "astic": 2570,
      "Ġperhaps": 2571,
      "bye": 2572,
      "Ġhours": 2573,
      "ounced": 2574,
      "Ġtonight": 2575,
      "ushed": 2576,
      "Ġconc": 2577,
      "avy": 2578,
      "Ġprofess": 2579,
      "ium": 2580,
      "Ġfootball": 2581,
      "ĠComm": 2582,
      "joy": 2583,
      "Ġtelling": 2584,
      "phone": 2585,
      "Ġdoub": 2586,
      "essie": 2587,
      "Ġtelevision": 2588,
      "Some": 2589,
      "Ġhang": 2590,
      "Ġnor": 2591,
      "ĠMy": 2592,
      "Ġmeant": 2593,
      "ager": 2594,
      "reed": 2595,
      "Ġstreet": 2596,
      "Ġalright": 2597,
      "Ġdra": 2598,
      "ĠNovember": 2599,
      "Ġevening": 2600,
      "gar": 2601,
      "Ġahead": 2602,
      "Ġya": 2603,
      "Ġstra": 2604,
      "ED": 2605,
      "unk": 2606,
      "unity": 2607,
      "Ġmod": 2608,
      "ĠDo": 2609,
      "Ġhowever": 2610,
      "uthor": 2611,
      "TER": 2612,
      "ondon": 2613,
      "mbers": 2614,
      "Ġstep": 2615,
      "ots": 2616,
      "ĠAf": 2617,
      "Ġboat": 2618,
      "Ġthird": 2619,
      "usband": 2620,
      "ĠMary": 2621,
      "Ġyours": 2622,
      "ĠFebruary": 2623,
      "some": 2624,
      "wait": 2625,
      "Ġcake": 2626,
      "Ġpartic": 2627,
      "eal": 2628,
      "itch": 2629,
      "Ġdad": 2630,
      "Ġdi": 2631,
      "Ġroll": 2632,
      "ouncil": 2633,
      "Ġnews": 2634,
      "Ġaren": 2635,
      "ĠPart": 2636,
      "Ġanymore": 2637,
      "Ġslow": 2638,
      "Ġmillion": 2639,
      "Ġhar": 2640,
      "Ġgod": 2641,
      "Ġsafe": 2642,
      "ĠJune": 2643,
      "Ġperfect": 2644,
      "Ġwhom": 2645,
      "Ġsupport": 2646,
      "ĠMom": 2647,
      "Ġride": 2648,
      "Ġpresident": 2649,
      "ĠPresident": 2650,
      "Ġ2016": 2651,
      "ĠDecember": 2652,
      "rat": 2653,
      "Ġbuilding": 2654,
      "ĠNational": 2655,
      "Ġprison": 2656,
      "fly": 2657,
      "Ġanyone": 2658,
      "Ġmoved": 2659,
      "Ġbird": 2660,
      "Ġsounds": 2661,
      "Ġpassed": 2662,
      "ror": 2663,
      "Ġlad": 2664,
      "Ġinstead": 2665,
      "Ġann": 2666,
      "Ġ14": 2667,
      "Ġring": 2668,
      "Ġwritten": 2669,
      "Uh": 2670,
      "Ġ13": 2671,
      "rigin": 2672,
      "ilver": 2673,
      "Ġbuilt": 2674,
      "Ġclos": 2675,
      "ĠPl": 2676,
      "Ġstanding": 2677,
      "resent": 2678,
      "Ex": 2679,
      "llustr": 2680,
      "Ġnoises": 2681,
      "Ġtired": 2682,
      "Ġdefe": 2683,
      "ĠLondon": 2684,
      "Ġ192": 2685,
      "Ġthirty": 2686,
      "ron": 2687,
      "Ġcontro": 2688,
      "Ġcoup": 2689,
      "Ġhistory": 2690,
      "anta": 2691,
      "fer": 2692,
      "Ġweeks": 2693,
      "bit": 2694,
      "ange": 2695,
      "Ġeverybody": 2696,
      "ov": 2697,
      "Ġglass": 2698,
      "terday": 2699,
      "Ġcharac": 2700,
      "Ġpark": 2701,
      "Ġ2015": 2702,
      "ET": 2703,
      "Ġmount": 2704,
      "Ġloud": 2705,
      "Ġthrow": 2706,
      "Ġhusband": 2707,
      "ĠSouth": 2708,
      "Ġtakes": 2709,
      "Ġabs": 2710,
      "ressed": 2711,
      "ced": 2712,
      "Ġwaiting": 2713,
      "Ġfle": 2714,
      "ĠJack": 2715,
      "thened": 2716,
      "Ġsick": 2717,
      "ĠCal": 2718,
      "Ġdiv": 2719,
      "Ġsave": 2720,
      "Ġtruck": 2721,
      "Ġcirc": 2722,
      "ored": 2723,
      "Ġdanger": 2724,
      "unicip": 2725,
      "ĠHouse": 2726,
      "ĠWh": 2727,
      "Ġdaddy": 2728,
      "Ġtrees": 2729,
      "ping": 2730,
      "Ġpossible": 2731,
      "dat": 2732,
      "ĠDor": 2733,
      "emy": 2734,
      "Ġclim": 2735,
      "ground": 2736,
      "bout": 2737,
      "cri": 2738,
      "Ġcand": 2739,
      "Ġcop": 2740,
      "ency": 2741,
      "Maybe": 2742,
      "Ġcost": 2743,
      "Ġdeep": 2744,
      "Ġdevelop": 2745,
      "Ġ#": 2746,
      "Ġsnow": 2747,
      "Ġbreat": 2748,
      "Ġfit": 2749,
      "estern": 2750,
      "Ġlunch": 2751,
      "ended": 2752,
      "Ġdep": 2753,
      "tom": 2754,
      "Ġparent": 2755,
      "par": 2756,
      "Ġfear": 2757,
      "Ġformer": 2758,
      "Of": 2759,
      "Ġcast": 2760,
      "Ġknock": 2761,
      "iter": 2762,
      "Ġsecret": 2763,
      "Ġ2020": 2764,
      "ternational": 2765,
      "stairs": 2766,
      "Ġwhatever": 2767,
      "Ġteacher": 2768,
      "idence": 2769,
      "Ġsuppose": 2770,
      "Ġsand": 2771,
      "amb": 2772,
      "Ġbroke": 2773,
      "AY": 2774,
      "Ġbow": 2775,
      "att": 2776,
      ",'": 2777,
      "Ġreturned": 2778,
      "Ġmembers": 2779,
      "Ġve": 2780,
      "ĠSe": 2781,
      "Ġtest": 2782,
      "Ġcertainly": 2783,
      "iled": 2784,
      "Ġplaces": 2785,
      "Ġswim": 2786,
      "hel": 2787,
      "Ġfur": 2788,
      "Ġcannot": 2789,
      "Ġspace": 2790,
      "ky": 2791,
      "noon": 2792,
      "Ġindeed": 2793,
      "Ġstraight": 2794,
      "Ġru": 2795,
      "unday": 2796,
      "Ġfeeling": 2797,
      "ĠCap": 2798,
      "Ġriver": 2799,
      "ospital": 2800,
      "omb": 2801,
      "Ġsuccess": 2802,
      "uel": 2803,
      "Ġterri": 2804,
      "Ġwriting": 2805,
      "Ġenjoy": 2806,
      "Ġpost": 2807,
      "ĠTr": 2808,
      "Ġwarm": 2809,
      "maybe": 2810,
      "Ġarri": 2811,
      "ior": 2812,
      "Ġfellow": 2813,
      "ulation": 2814,
      "Ġpuzz": 2815,
      "HAT": 2816,
      "ral": 2817,
      "ĠAm": 2818,
      "ĠOne": 2819,
      "With": 2820,
      "Ġvar": 2821,
      "Ġclothes": 2822,
      "US": 2823,
      "Ġluck": 2824,
      "ĠJust": 2825,
      "oul": 2826,
      "Ġspell": 2827,
      "Ġpolice": 2828,
      "Ġcry": 2829,
      "Ġda": 2830,
      "ĠNorth": 2831,
      "Ġsupposed": 2832,
      "Ġprotect": 2833,
      "Ġcaught": 2834,
      "Ġoper": 2835,
      "llo": 2836,
      "Ġstri": 2837,
      "though": 2838,
      "Ġworks": 2839,
      "Ġparticular": 2840,
      "Ġspec": 2841,
      "II": 2842,
      "Illustr": 2843,
      "Ġmiddle": 2844,
      "arden": 2845,
      "Ġarms": 2846,
      "ĠMarky": 2847,
      "Get": 2848,
      "oose": 2849,
      "ĠAN": 2850,
      "ĠPer": 2851,
      "Ġdisapp": 2852,
      "Ã¡": 2853,
      "Ġlow": 2854,
      "Ġexactly": 2855,
      "Ġdecided": 2856,
      "Ġdet": 2857,
      "Ġprogram": 2858,
      "After": 2859,
      "ĠTe": 2860,
      "Have": 2861,
      "time": 2862,
      "Ġpen": 2863,
      "Ġtruth": 2864,
      "Ġdiffic": 2865,
      "Ġvict": 2866,
      "Ġprodu": 2867,
      "Ch": 2868,
      "empt": 2869,
      "Ġeveryone": 2870,
      "Illustration": 2871,
      "Ġval": 2872,
      "Ġcouple": 2873,
      "Ġclub": 2874,
      "Ġkiss": 2875,
      "Ġusually": 2876,
      "Ġchanged": 2877,
      "Ġlanguage": 2878,
      "Ġdest": 2879,
      "ask": 2880,
      "Ġpieces": 2881,
      "ĠSha": 2882,
      "Ġorigin": 2883,
      "uri": 2884,
      "Ġbright": 2885,
      "Ġcool": 2886,
      "bor": 2887,
      "Ġmunicip": 2888,
      "igg": 2889,
      "ĠNe": 2890,
      "hile": 2891,
      "ĠIndian": 2892,
      "AP": 2893,
      "Ġsell": 2894,
      "Ġdistrict": 2895,
      "Ġpictures": 2896,
      "ĠIN": 2897,
      "cher": 2898,
      "over": 2899,
      "Ġpolitician": 2900,
      "Or": 2901,
      "Ġwild": 2902,
      "Ġyesterday": 2903,
      "ichard": 2904,
      "Ġsouth": 2905,
      "Ġafternoon": 2906,
      "Ġdrive": 2907,
      "mo": 2908,
      "ctions": 2909,
      "hire": 2910,
      "aser": 2911,
      "icy": 2912,
      "ĠGeorge": 2913,
      "Ġcal": 2914,
      "Ġwhose": 2915,
      "Ġ30": 2916,
      "Ġbes": 2917,
      "Ġfollowing": 2918,
      "ID": 2919,
      "ĠNot": 2920,
      "Ġcars": 2921,
      "ĠNor": 2922,
      "ris": 2923,
      "Ġcream": 2924,
      "oops": 2925,
      "Ġforward": 2926,
      "Ġcommon": 2927,
      "Ġfinish": 2928,
      "Ġgeneral": 2929,
      "silver": 2930,
      "ourn": 2931,
      "Ġ...": 2932,
      "Ġvillage": 2933,
      "Ġbroken": 2934,
      "Ġuncle": 2935,
      "Ġ)": 2936,
      "Ġnorth": 2937,
      "Ġlevel": 2938,
      "Ġappro": 2939,
      "ding": 2940,
      "Ġlearn": 2941,
      "iger": 2942,
      "yy": 2943,
      "ĠEdna": 2944,
      "Ġbra": 2945,
      "Ġvide": 2946,
      "wered": 2947,
      "which": 2948,
      "Ġcomplete": 2949,
      "Ġserved": 2950,
      "Ġdoubt": 2951,
      "Ġliked": 2952,
      "Ġarmy": 2953,
      "Ġfavor": 2954,
      "Ġdepartment": 2955,
      "Ġbur": 2956,
      "Ġow": 2957,
      "Ġhole": 2958,
      "ĠAfter": 2959,
      "Ġrul": 2960,
      "encil": 2961,
      "Ġearth": 2962,
      "ĠParty": 2963,
      "lin": 2964,
      "Ġself": 2965,
      "Ġju": 2966,
      "Ġsuper": 2967,
      "ffic": 2968,
      "Ġneeds": 2969,
      "min": 2970,
      "Ġputting": 2971,
      "Ġpoints": 2972,
      "Ġsus": 2973,
      "ĠLord": 2974,
      "Ġprop": 2975,
      "whis": 2976,
      "amer": 2977,
      "Ġpract": 2978,
      "Ġfail": 2979,
      "Ġequ": 2980,
      "Ġstopped": 2981,
      "Ġfigure": 2982,
      "CK": 2983,
      "Ġain": 2984,
      "Ġimag": 2985,
      "Ġhappens": 2986,
      "Ġcareer": 2987,
      "Any": 2988,
      "tell": 2989,
      "lex": 2990,
      "Ġopened": 2991,
      "Ġpencil": 2992,
      "Ġanswered": 2993,
      "Ġesc": 2994,
      "MA": 2995,
      "Ġang": 2996,
      "lt": 2997,
      "watch": 2998,
      "ĠSunday": 2999,
      "ada": 3000,
      "aged": 3001,
      "Ġmatch": 3002,
      "Ġfield": 3003,
      "ording": 3004,
      "fast": 3005,
      "Ġhast": 3006,
      "nce": 3007,
      "nel": 3008,
      "ribut": 3009,
      "Ġstre": 3010,
      "Ġanybody": 3011,
      "OM": 3012,
      "Ġstrange": 3013,
      "Ġusing": 3014,
      "Ġleaf": 3015,
      "Ġdie": 3016,
      "othy": 3017,
      "Ġ25": 3018,
      "ĠX": 3019,
      "Ġauthor": 3020,
      "olved": 3021,
      "ti": 3022,
      "Ġworth": 3023,
      "ample": 3024,
      "Ġeighty": 3025,
      "ege": 3026,
      "give": 3027,
      "ogn": 3028,
      "Ġproper": 3029,
      "ĠEar": 3030,
      "Ġ]": 3031,
      "Ġtowards": 3032,
      "acy": 3033,
      "Ġav": 3034,
      "Ġsummer": 3035,
      "Ġwhis": 3036,
      "Ġbelong": 3037,
      "Ġfill": 3038,
      "ĠSec": 3039,
      "ustral": 3040,
      "ĠGermany": 3041,
      "Ġhorses": 3042,
      "Ġtur": 3043,
      "Ġled": 3044,
      "ceed": 3045,
      "Ġdev": 3046,
      "Hello": 3047,
      "cuse": 3048,
      "Ġcatch": 3049,
      "ĠWest": 3050,
      "sha": 3051,
      "Ġgrew": 3052,
      "uke": 3053,
      "ashing": 3054,
      "Ġworry": 3055,
      "ĠAld": 3056,
      "Ġnose": 3057,
      "Ġtrust": 3058,
      "Ġdesign": 3059,
      "ays": 3060,
      "Ġreceived": 3061,
      "Ġgiving": 3062,
      "ya": 3063,
      "eg": 3064,
      "Ġprin": 3065,
      "iew": 3066,
      "--------": 3067,
      "iced": 3068,
      "Ġshot": 3069,
      "Ġhig": 3070,
      "Ġcheese": 3071,
      "ĠQue": 3072,
      "Ġforty": 3073,
      "ĠOF": 3074,
      "ĠWell": 3075,
      "Ġmeeting": 3076,
      "yn": 3077,
      "Ġbeat": 3078,
      "Ġnut": 3079,
      "Ġparents": 3080,
      "uit": 3081,
      "Ġneigh": 3082,
      "ums": 3083,
      "of": 3084,
      "Ġseat": 3085,
      "ĠWilliam": 3086,
      "Ġcre": 3087,
      "cell": 3088,
      "Ġlaughing": 3089,
      "Ġproduc": 3090,
      "Ġchick": 3091,
      "field": 3092,
      "inos": 3093,
      "Ġlose": 3094,
      "ĠBessie": 3095,
      "ino": 3096,
      "Ġlau": 3097,
      "Ġheavy": 3098,
      "view": 3099,
      "oura": 3100,
      "Ġtot": 3101,
      "order": 3102,
      "lands": 3103,
      "Ġburn": 3104,
      "olute": 3105,
      "GRA": 3106,
      "uture": 3107,
      "ĠSh": 3108,
      "Ġholding": 3109,
      "cially": 3110,
      "Ġcover": 3111,
      "ffect": 3112,
      "ichael": 3113,
      "olution": 3114,
      "apan": 3115,
      "OK": 3116,
      "Ġrequ": 3117,
      "ĠWal": 3118,
      "Ġmaster": 3119,
      "Ġlab": 3120,
      "iers": 3121,
      "Ġ23": 3122,
      "gest": 3123,
      "would": 3124,
      "your": 3125,
      "Ġquickly": 3126,
      "work": 3127,
      "Ġpack": 3128,
      "Ġhospital": 3129,
      "Ġship": 3130,
      "Ġreached": 3131,
      "Ġstation": 3132,
      "Wh": 3133,
      "ills": 3134,
      "Ġ24": 3135,
      "Ġelephan": 3136,
      "ĠEle": 3137,
      "ĠAd": 3138,
      "ified": 3139,
      "ĠNow": 3140,
      "ggest": 3141,
      "Ġpat": 3142,
      "ira": 3143,
      "Ġsuggest": 3144,
      "Ġposition": 3145,
      "ius": 3146,
      "Ġrad": 3147,
      "ROG": 3148,
      "AM": 3149,
      "ances": 3150,
      "Ġanyway": 3151,
      "ĠAg": 3152,
      "Ġreading": 3153,
      "ĠAustral": 3154,
      "Ġshop": 3155,
      "Ġspir": 3156,
      "Ġpretend": 3157,
      "Sarah": 3158,
      "iol": 3159,
      "ille": 3160,
      "Ġsol": 3161,
      "oke": 3162,
      "Ġsight": 3163,
      "Ġconsider": 3164,
      "OW": 3165,
      "Ġtit": 3166,
      "ander": 3167,
      "Erm": 3168,
      "Ġ21": 3169,
      "âĢľâĢĺ": 3170,
      "Ġthou": 3171,
      "rup": 3172,
      "Ġfort": 3173,
      "Ġexcl": 3174,
      "Ġloved": 3175,
      "viously": 3176,
      "ĠCom": 3177,
      "ization": 3178,
      "ips": 3179,
      "Ġseason": 3180,
      "iling": 3181,
      "Ġapple": 3182,
      "Ġforest": 3183,
      "por": 3184,
      "Ġsense": 3185,
      "Ġstarts": 3186,
      "ĠTed": 3187,
      "Ġfollowed": 3188,
      "See": 3189,
      "Ġmad": 3190,
      "Ġsevent": 3191,
      "ĠEm": 3192,
      "Ġcond": 3193,
      "Ġwonderful": 3194,
      "Ġinform": 3195,
      "Ġemp": 3196,
      "Ġjuice": 3197,
      "zer": 3198,
      "ĠBear": 3199,
      "Ġcommune": 3200,
      "singing": 3201,
      "Home": 3202,
      "mon": 3203,
      "ray": 3204,
      "yer": 3205,
      "ĠHen": 3206,
      "Ġquar": 3207,
      "ĠAnge": 3208,
      "Ġeduc": 3209,
      "ĠCent": 3210,
      "Ġapart": 3211,
      "aimed": 3212,
      "Ġscared": 3213,
      "ĠSir": 3214,
      "Ġshoes": 3215,
      "Ġletters": 3216,
      "Ġtast": 3217,
      "Ġla": 3218,
      "Ġplate": 3219,
      "LL": 3220,
      "Sorry": 3221,
      "Ġneck": 3222,
      "Ġflowers": 3223,
      "Ġhous": 3224,
      "Ġexcept": 3225,
      "makes": 3226,
      "Ġhol": 3227,
      "ĠGreat": 3228,
      "Ġgarden": 3229,
      "riage": 3230,
      "Ġtail": 3231,
      "ishing": 3232,
      "Ġdanc": 3233,
      "Ġeffect": 3234,
      "rill": 3235,
      "ences": 3236,
      "lymp": 3237,
      "ĠDan": 3238,
      "Ġsuddenly": 3239,
      "ives": 3240,
      "ugg": 3241,
      "?âĢĿ": 3242,
      "ience": 3243,
      "Ġactiv": 3244,
      "Ġwat": 3245,
      "VE": 3246,
      "ĠWhy": 3247,
      "Ġban": 3248,
      "Ġlovely": 3249,
      "Ġbeginning": 3250,
      "Ġpress": 3251,
      "Ġaccept": 3252,
      "Ġpriv": 3253,
      "dis": 3254,
      "vin": 3255,
      "Ġsad": 3256,
      "Ġcause": 3257,
      "pers": 3258,
      "aturday": 3259,
      "Ġcharacter": 3260,
      "Ġoffe": 3261,
      "ugs": 3262,
      "Ġview": 3263,
      "Ġrecogn": 3264,
      "worth": 3265,
      "Ġservice": 3266,
      "Ġstat": 3267,
      "Ġkn": 3268,
      "soci": 3269,
      "Ġsupper": 3270,
      "board": 3271,
      "Ġjud": 3272,
      "ĠOr": 3273,
      "sey": 3274,
      "ĠAust": 3275,
      "ĠNet": 3276,
      "Ġfuture": 3277,
      "Ġhealth": 3278,
      "Ġcircle": 3279,
      "iff": 3280,
      "ift": 3281,
      "ĠOlymp": 3282,
      "Ġbread": 3283,
      "ĠRepubl": 3284,
      "sit": 3285,
      "Ġproblems": 3286,
      "Ġgas": 3287,
      "Ġmoving": 3288,
      "Ġincluding": 3289,
      "Ġmajor": 3290,
      "ĠEx": 3291,
      "Ġboard": 3292,
      "puts": 3293,
      "Ġcurrent": 3294,
      "Ġcorner": 3295,
      "THE": 3296,
      "cer": 3297,
      "Ġdance": 3298,
      "Ġspend": 3299,
      "omething": 3300,
      "RIC": 3301,
      "iod": 3302,
      "unny": 3303,
      "Ġought": 3304,
      "ĠJapan": 3305,
      "Ġinvest": 3306,
      "Ġvideo": 3307,
      "Ġnina": 3308,
      "ĠPark": 3309,
      "ĠPeter": 3310,
      "ummy": 3311,
      "Ġcollect": 3312,
      "ĠGl": 3313,
      "ograp": 3314,
      "His": 3315,
      "Thanks": 3316,
      "Ġgen": 3317,
      "Ġiss": 3318,
      "sy": 3319,
      "urse": 3320,
      "ission": 3321,
      "Ġspoke": 3322,
      "Ġcreated": 3323,
      "AD": 3324,
      "ĠTur": 3325,
      "Ġappear": 3326,
      "Ġleaving": 3327,
      "Like": 3328,
      "exas": 3329,
      "Ġdifficult": 3330,
      "Ġmommy": 3331,
      "eder": 3332,
      "omin": 3333,
      "Ġcomfort": 3334,
      "Ġbased": 3335,
      "Ġnames": 3336,
      "itted": 3337,
      "ĠÃ": 3338,
      "Ġcompl": 3339,
      "ĠLea": 3340,
      "ply": 3341,
      "val": 3342,
      "uce": 3343,
      "Ġsugar": 3344,
      "tered": 3345,
      "Ġexample": 3346,
      "ades": 3347,
      "ĠSm": 3348,
      "ĠSy": 3349,
      "ĠSis": 3350,
      "iforn": 3351,
      "isten": 3352,
      "Ġbrown": 3353,
      "ĠAmerica": 3354,
      "Ġreplied": 3355,
      "Ġseeing": 3356,
      "Ġcompan": 3357,
      "Ġchurch": 3358,
      "ruction": 3359,
      "ĠPol": 3360,
      "pered": 3361,
      "Ġbusy": 3362,
      "pping": 3363,
      "itions": 3364,
      "ĠDad": 3365,
      "Ġ22": 3366,
      "Ġdelight": 3367,
      "picks": 3368,
      "]!": 3369,
      "ifornia": 3370,
      "boy": 3371,
      "wood": 3372,
      "Ġcow": 3373,
      "pper": 3374,
      "Tell": 3375,
      "Ġbank": 3376,
      "Ġmention": 3377,
      "itched": 3378,
      "Ġcrying": 3379,
      "ests": 3380,
      "Ġvol": 3381,
      "ancy": 3382,
      "Ġbreakfast": 3383,
      "Ġlocal": 3384,
      "ĠEve": 3385,
      "Ġbottom": 3386,
      "Ġblocks": 3387,
      "Mar": 3388,
      "Ġlie": 3389,
      "chan": 3390,
      "ient": 3391,
      "oop": 3392,
      "ĠUrs": 3393,
      "Ġcalling": 3394,
      "Ġregion": 3395,
      "Ġsli": 3396,
      "ument": 3397,
      "Ġfinger": 3398,
      "nic": 3399,
      "Ġdecl": 3400,
      "Ġshar": 3401,
      "Ġphot": 3402,
      "ĠDorothy": 3403,
      "Ġmunicipality": 3404,
      "round": 3405,
      "hys": 3406,
      "Wait": 3407,
      "mond": 3408,
      "Ġtiny": 3409,
      "ĠRichard": 3410,
      "ĠOf": 3411,
      "ĠVisit": 3412,
      "ĠJane": 3413,
      "kin": 3414,
      "Ġcareful": 3415,
      "Ġrepresent": 3416,
      "ĠItaly": 3417,
      "Ġgames": 3418,
      "Ġpopulation": 3419,
      "Ġdiscuss": 3420,
      "10": 3421,
      "rer": 3422,
      "ĠCo": 3423,
      "Ġcarried": 3424,
      "Ġquestions": 3425,
      "bers": 3426,
      "ĠSanta": 3427,
      "resh": 3428,
      "ĠOx": 3429,
      "Ġitself": 3430,
      "irm": 3431,
      "Ġanx": 3432,
      "ĠRoman": 3433,
      "Ġwatching": 3434,
      "Ġcard": 3435,
      "ĠSaturday": 3436,
      "Ġcrit": 3437,
      "Ġhate": 3438,
      "Ġlegs": 3439,
      "Ġfurther": 3440,
      "ĠLou": 3441,
      "will": 3442,
      "Ġnobody": 3443,
      "ĠJeff": 3444,
      "Ġwan": 3445,
      "Ġpuzzle": 3446,
      "Ġbell": 3447,
      "Ġappeared": 3448,
      "raft": 3449,
      "Ġalive": 3450,
      "Ġanimal": 3451,
      "Ġep": 3452,
      "ĠChampions": 3453,
      "ĠCalifornia": 3454,
      "Ne": 3455,
      "turn": 3456,
      "apa": 3457,
      "Ġasking": 3458,
      "Ġhelped": 3459,
      "Ġbottle": 3460,
      "Ġaccount": 3461,
      "Ġputs": 3462,
      "Ġsixty": 3463,
      "itary": 3464,
      "ĠQueen": 3465,
      "ĠBaby": 3466,
      "Ġflat": 3467,
      "ĠMinister": 3468,
      "het": 3469,
      "Ġdere": 3470,
      "Ġperfor": 3471,
      "take": 3472,
      "Ġentire": 3473,
      "Will": 3474,
      "Ġcarry": 3475,
      "ercy": 3476,
      "yed": 3477,
      "str": 3478,
      "cket": 3479,
      "know": 3480,
      "want": 3481,
      "Ġstuck": 3482,
      "ĠMc": 3483,
      "ourt": 3484,
      "Ġobjects": 3485,
      "off": 3486,
      "omen": 3487,
      "ĠSchool": 3488,
      "Ġrelig": 3489,
      "ĠThese": 3490,
      "Ġproud": 3491,
      "GH": 3492,
      "Ġmid": 3493,
      "Ġlock": 3494,
      "ĠSome": 3495,
      "Ġtrack": 3496,
      "Ġstudio": 3497,
      "Adam": 3498,
      "Ġbought": 3499,
      "ico": 3500,
      "ĠGree": 3501,
      "Ġwalked": 3502,
      "ĠWith": 3503,
      "epend": 3504,
      "Me": 3505,
      "Un": 3506,
      "hood": 3507,
      "ĠNina": 3508,
      "Ġbigger": 3509,
      "liament": 3510,
      "Ġpromise": 3511,
      "uation": 3512,
      "erm": 3513,
      "acing": 3514,
      "AK": 3515,
      "Ġallowed": 3516,
      "pecially": 3517,
      "Ġhall": 3518,
      "Ġrace": 3519,
      "Ġsomewhere": 3520,
      "Ġbackground": 3521,
      "ĠState": 3522,
      "Ġnearly": 3523,
      "Ġmix": 3524,
      "cience": 3525,
      "iment": 3526,
      "COU": 3527,
      "Ġsubject": 3528,
      "18": 3529,
      "Take": 3530,
      "say": 3531,
      "utch": 3532,
      "ference": 3533,
      "Ġtall": 3534,
      "ume": 3535,
      "umph": 3536,
      "Ġspoon": 3537,
      "Ġcapital": 3538,
      "ket": 3539,
      "va": 3540,
      "have": 3541,
      "Ġfinal": 3542,
      "Ġcharge": 3543,
      "Ġtoward": 3544,
      "Ġmiles": 3545,
      "Hi": 3546,
      "Ġvers": 3547,
      "ĠTexas": 3548,
      "Ġpolitical": 3549,
      "ghed": 3550,
      "orence": 3551,
      "Ġshut": 3552,
      "Ġweren": 3553,
      "Ġcourt": 3554,
      "Ġtor": 3555,
      "ĠMe": 3556,
      "ĠRed": 3557,
      "ĠRussian": 3558,
      "ploy": 3559,
      "Ġlearned": 3560,
      "ANN": 3561,
      "ĠIndia": 3562,
      "gon": 3563,
      "ĠJo": 3564,
      "cious": 3565,
      "talk": 3566,
      "Ġstars": 3567,
      "Ġeggs": 3568,
      "Ġplayer": 3569,
      "Ġattention": 3570,
      "Ġinformation": 3571,
      "ause": 3572,
      "Ġpeace": 3573,
      "uge": 3574,
      "Ġlim": 3575,
      "Ġwel": 3576,
      "Ġaccident": 3577,
      "ki": 3578,
      "Ġnatur": 3579,
      "ĠBy": 3580,
      "Ġgrass": 3581,
      "Ġshouldn": 3582,
      "under": 3583,
      "roat": 3584,
      "Ġshout": 3585,
      "Ġcentury": 3586,
      "Ġcontrol": 3587,
      "HER": 3588,
      "NG": 3589,
      "gu": 3590,
      "Ġmach": 3591,
      "ases": 3592,
      "osta": 3593,
      "clock": 3594,
      "FA": 3595,
      "Ġlift": 3596,
      "Ġorange": 3597,
      "house": 3598,
      "Ġboo": 3599,
      "ida": 3600,
      "ria": 3601,
      "urity": 3602,
      "raph": 3603,
      "Ġaff": 3604,
      "Ġparts": 3605,
      "Ġgar": 3606,
      "BR": 3607,
      "EW": 3608,
      "ires": 3609,
      "Ġdinos": 3610,
      "Ġdescri": 3611,
      "Sh": 3612,
      "aff": 3613,
      "uses": 3614,
      "Ġplastic": 3615,
      "Ġsticks": 3616,
      "Ġengine": 3617,
      "ĠCaptain": 3618,
      "anor": 3619,
      "uty": 3620,
      "Ġdropped": 3621,
      "Ġflew": 3622,
      "ĠEl": 3623,
      "Ġrespect": 3624,
      "Ġbirds": 3625,
      "ology": 3626,
      ",âĢĻ": 3627,
      "Ġsna": 3628,
      "has": 3629,
      "ased": 3630,
      "medi": 3631,
      "ĠOxford": 3632,
      "ils": 3633,
      "Ġextra": 3634,
      "rect": 3635,
      "ĠTom": 3636,
      "ĠChe": 3637,
      "Ġshowed": 3638,
      "Ġ26": 3639,
      "AND": 3640,
      "Ġinteresting": 3641,
      "Ġpi": 3642,
      "ĠCouncil": 3643,
      "\")": 3644,
      "Ġ*": 3645,
      "Ġincre": 3646,
      "Ġchief": 3647,
      "father": 3648,
      "ords": 3649,
      "Ġfilm": 3650,
      "Br": 3651,
      "HIS": 3652,
      "ĠMa": 3653,
      "GMA": 3654,
      "Ġhost": 3655,
      "ĠSan": 3656,
      "Ġjoined": 3657,
      "Ġfright": 3658,
      "Ġsex": 3659,
      "dog": 3660,
      "Ġrid": 3661,
      "Ġ27": 3662,
      "esta": 3663,
      "inal": 3664,
      "irty": 3665,
      "ffie": 3666,
      "Ġbattle": 3667,
      "olutely": 3668,
      "ere": 3669,
      "eds": 3670,
      "Ġbeach": 3671,
      "Ġrese": 3672,
      "Ġmem": 3673,
      "Ġ28": 3674,
      "obert": 3675,
      "Ġbutterfly": 3676,
      "Ġlaughed": 3677,
      "Ġonto": 3678,
      "ĠAunt": 3679,
      "ĠCla": 3680,
      "eneral": 3681,
      "Ġpopular": 3682,
      "ĠGovern": 3683,
      "light": 3684,
      "Ġdue": 3685,
      "aud": 3686,
      "Ġdirected": 3687,
      "Ġut": 3688,
      "Ġpati": 3689,
      "Ġviol": 3690,
      "Ġfem": 3691,
      "Ġpaid": 3692,
      "antly": 3693,
      "ivil": 3694,
      "ĠMad": 3695,
      "Ġord": 3696,
      "Ġperiod": 3697,
      "ĠSpan": 3698,
      "Ġlengthened": 3699,
      "car": 3700,
      "Ġrepe": 3701,
      "Ġdogg": 3702,
      "arm": 3703,
      "Ġcountries": 3704,
      "Ġearli": 3705,
      "Ġfarm": 3706,
      "Stop": 3707,
      "ĠChan": 3708,
      "Ã¼": 3709,
      "ids": 3710,
      "Ġears": 3711,
      "ppy": 3712,
      "Ġspent": 3713,
      "onday": 3714,
      "plane": 3715,
      "Ġleaves": 3716,
      "Ġwide": 3717,
      "Ġwalking": 3718,
      "Ġneeded": 3719,
      "dered": 3720,
      "Ġstudy": 3721,
      "set": 3722,
      "Ġdar": 3723,
      "omes": 3724,
      "rab": 3725,
      "romer": 3726,
      "UT": 3727,
      "Ġcomb": 3728,
      "Ġchicken": 3729,
      "hand": 3730,
      "Ġreach": 3731,
      "Ġworse": 3732,
      "these": 3733,
      "Ġdestro": 3734,
      "Ġduck": 3735,
      "ston": 3736,
      "Ġconne": 3737,
      "oming": 3738,
      "Ġforth": 3739,
      "Ġrose": 3740,
      "Ġtalked": 3741,
      "liz": 3742,
      "Ġdirect": 3743,
      "Ġï¿½": 3744,
      "itive": 3745,
      "Ġdam": 3746,
      "Ġstage": 3747,
      "ĠAb": 3748,
      "ĠCup": 3749,
      "ĠRob": 3750,
      "ĠAnn": 3751,
      "Ġconcern": 3752,
      "ili": 3753,
      "ĠPort": 3754,
      "aker": 3755,
      "ĠAND": 3756,
      "Ġattempt": 3757,
      "Ġfinally": 3758,
      "Ġsurprise": 3759,
      "Ġdrop": 3760,
      "ours": 3761,
      "Ġsleeping": 3762,
      "conom": 3763,
      "ek": 3764,
      "Ġforce": 3765,
      "ĠCr": 3766,
      "ĠUS": 3767,
      "Ġblank": 3768,
      "Ġturning": 3769,
      "Ġchocol": 3770,
      "ination": 3771,
      "Ġmus": 3772,
      "Ġleader": 3773,
      "Ġcell": 3774,
      "istory": 3775,
      ".âĢĻ": 3776,
      "Ġnecess": 3777,
      "Ġsky": 3778,
      "ĠWhite": 3779,
      "ĠTony": 3780,
      "Ġaged": 3781,
      "bre": 3782,
      "line": 3783,
      "ousin": 3784,
      "Ġfeed": 3785,
      "Ġshare": 3786,
      "Ġcontinued": 3787,
      "ĠFriday": 3788,
      "Ġprofessional": 3789,
      "Ġangry": 3790,
      "ĠMon": 3791,
      "Ġrich": 3792,
      "Ġpray": 3793,
      "Ġcoco": 3794,
      "ĠMarc": 3795,
      "Ġslice": 3796,
      "Ġterrible": 3797,
      "rel": 3798,
      "olf": 3799,
      "Ġoffered": 3800,
      "Ġstories": 3801,
      "ĠColl": 3802,
      "ously": 3803,
      "ĠFlorence": 3804,
      "Cl": 3805,
      "hello": 3806,
      "Ġnone": 3807,
      "three": 3808,
      "icked": 3809,
      "Ġpossib": 3810,
      "reme": 3811,
      "Ġbab": 3812,
      "Ġclosed": 3813,
      "Ġenc": 3814,
      "Ġadded": 3815,
      "By": 3816,
      "af": 3817,
      "Ġhy": 3818,
      "ami": 3819,
      "stit": 3820,
      "ometimes": 3821,
      "Ġenemy": 3822,
      "Ġlots": 3823,
      "Ġbene": 3824,
      "ato": 3825,
      "elve": 3826,
      "Ġbegin": 3827,
      "ĠKingdom": 3828,
      "cast": 3829,
      "ĠJim": 3830,
      "Ġgrad": 3831,
      "ression": 3832,
      "Ġelection": 3833,
      "'?": 3834,
      "Mrs": 3835,
      "ĠBlack": 3836,
      "11": 3837,
      "Ġelect": 3838,
      "Ġfalls": 3839,
      "Ġexcit": 3840,
      "yond": 3841,
      "ĠâĻª": 3842,
      "Ġkey": 3843,
      "Ġsimply": 3844,
      "Ġfavorite": 3845,
      "ville": 3846,
      "rec": 3847,
      "Ġport": 3848,
      "Ġweap": 3849,
      "ĠEast": 3850,
      "ĠON": 3851,
      "aft": 3852,
      "Ġlying": 3853,
      "Ġmeat": 3854,
      "cture": 3855,
      "ĠRiver": 3856,
      "Ġ(\"": 3857,
      "Ġclock": 3858,
      "Ġrabb": 3859,
      "Ġninety": 3860,
      "Ġtype": 3861,
      "Ġslowly": 3862,
      "pin": 3863,
      "yle": 3864,
      "song": 3865,
      "hem": 3866,
      "Ġhero": 3867,
      "Ġshows": 3868,
      "Ġdogs": 3869,
      "Ġbrave": 3870,
      "ilar": 3871,
      "Ġcaused": 3872,
      "ĠHenry": 3873,
      "Ġpush": 3874,
      "Ġspot": 3875,
      "oyal": 3876,
      "Ġcrow": 3877,
      "ĠEuropean": 3878,
      "ĠIT": 3879,
      "Ġwasher": 3880,
      "ĠHung": 3881,
      "Ġrub": 3882,
      "Ġmagnets": 3883,
      "ka": 3884,
      "ses": 3885,
      "ĠStreet": 3886,
      "Ġimmedi": 3887,
      "Ġbasket": 3888,
      "17": 3889,
      "iving": 3890,
      "ĠMart": 3891,
      "Ġprep": 3892,
      "Ġcommand": 3893,
      "Two": 3894,
      "ĠMex": 3895,
      "iles": 3896,
      "Ġremark": 3897,
      "CE": 3898,
      "From": 3899,
      "Ġconvers": 3900,
      "Ġchocolate": 3901,
      "Ġlikes": 3902,
      "Ġserious": 3903,
      "Ġpleasure": 3904,
      "Ġvarious": 3905,
      "Ġ$": 3906,
      "Ġfighting": 3907,
      "isf": 3908,
      "Ġtower": 3909,
      "Ġ100": 3910,
      "ially": 3911,
      "ĠRam": 3912,
      "Ġvan": 3913,
      "Ġ[?": 3914,
      "Ġstayed": 3915,
      "Would": 3916,
      "Ġpers": 3917,
      "bert": 3918,
      "Ġspeaking": 3919,
      "Ġthinks": 3920,
      "Ġsle": 3921,
      "Ġsinger": 3922,
      "Ġrelations": 3923,
      "Ġowl": 3924,
      "Ġ&": 3925,
      "Ġfresh": 3926,
      "Ġpal": 3927,
      "Ġprocess": 3928,
      "Ġindust": 3929,
      "razy": 3930,
      "burg": 3931,
      "ĠMag": 3932,
      "Ġcab": 3933,
      "Ġways": 3934,
      "ĠReg": 3935,
      "van": 3936,
      "Ġaut": 3937,
      "Ġblow": 3938,
      "God": 3939,
      "Ġmarket": 3940,
      "ration": 3941,
      "ĠCor": 3942,
      "bles": 3943,
      "ĠLady": 3944,
      "Ġspring": 3945,
      "Ġthanks": 3946,
      "ival": 3947,
      "Ġap": 3948,
      "rael": 3949,
      "ĠPat": 3950,
      "Ġtrad": 3951,
      "Ġ2018": 3952,
      "Ġlaughs": 3953,
      "ĠGrand": 3954,
      "omas": 3955,
      "ĠFather": 3956,
      "ĠSte": 3957,
      "Ġsoldiers": 3958,
      "Ġdry": 3959,
      "ĠDem": 3960,
      "These": 3961,
      "Ġscar": 3962,
      "Ġbreath": 3963,
      "erve": 3964,
      "Ġhide": 3965,
      "ĠDolly": 3966,
      "Ġsinging": 3967,
      "Ġofficer": 3968,
      "Ġcos": 3969,
      "ashed": 3970,
      "ĠAlex": 3971,
      "soft": 3972,
      "Ġcomput": 3973,
      "De": 3974,
      "amps": 3975,
      "Ġ29": 3976,
      "CHAP": 3977,
      "Ġtitle": 3978,
      "SS": 3979,
      "inary": 3980,
      "Ġmir": 3981,
      "nope": 3982,
      "ĠCourt": 3983,
      "Ġupstairs": 3984,
      "ĠKe": 3985,
      "Ġespecially": 3986,
      "Ġbite": 3987,
      "Ġrole": 3988,
      "Ġdressed": 3989,
      "Paul": 3990,
      "fin": 3991,
      "Ġiron": 3992,
      "Ġbud": 3993,
      "lect": 3994,
      "Ġtech": 3995,
      "ĠLeague": 3996,
      "CHAPTER": 3997,
      "Ġsocial": 3998,
      "Ġthreat": 3999,
      "Ġobs": 4000,
      "Ġtelephone": 4001,
      "Ġhouses": 4002,
      "Ar": 4003,
      "dd": 4004,
      "pret": 4005,
      "writ": 4006,
      "Ġpun": 4007,
      "Ġinfl": 4008,
      "andy": 4009,
      "Ġspirit": 4010,
      "four": 4011,
      "Ġlikely": 4012,
      "rawber": 4013,
      "Even": 4014,
      "Ġmass": 4015,
      "ooper": 4016,
      "ĠMonday": 4017,
      "ural": 4018,
      "ĠJames": 4019,
      "mag": 4020,
      "Ġphys": 4021,
      "Ġwash": 4022,
      "Ġexist": 4023,
      "Ġenv": 4024,
      "Ġteeth": 4025,
      "rief": 4026,
      "Ġestab": 4027,
      "ashington": 4028,
      "Ġexclaimed": 4029,
      "Ġisland": 4030,
      "ĠMass": 4031,
      "uhuh": 4032,
      "ĠĠĠĠĠĠ": 4033,
      "Ġamaz": 4034,
      "Ġdollars": 4035,
      "Ġfat": 4036,
      "Ġallow": 4037,
      "ĠLittle": 4038,
      "Ġexec": 4039,
      "Ġstone": 4040,
      "!'": 4041,
      "oly": 4042,
      "Ã¶": 4043,
      "Ġnorm": 4044,
      "ĠMichael": 4045,
      "iance": 4046,
      "Ġcommun": 4047,
      "Ġsoftly": 4048,
      "Ġwelcome": 4049,
      "ok": 4050,
      "pha": 4051,
      "sure": 4052,
      "ĠAnt": 4053,
      "ĠNesta": 4054,
      "Ġspread": 4055,
      "aps": 4056,
      "Ġfingers": 4057,
      "please": 4058,
      "Ġsuff": 4059,
      "Ġcrack": 4060,
      "Ġlawyer": 4061,
      "Ġsmile": 4062,
      "Ġdate": 4063,
      "oted": 4064,
      "ĠPal": 4065,
      "Ġplays": 4066,
      "Ġguard": 4067,
      "Ġcompletely": 4068,
      "eat": 4069,
      "host": 4070,
      "ergy": 4071,
      "ĠGood": 4072,
      "Ġdifference": 4073,
      "Ġballs": 4074,
      "Ġchim": 4075,
      "Ġfamous": 4076,
      "Ġspoken": 4077,
      "isc": 4078,
      "Ġbeyond": 4079,
      "Ġrights": 4080,
      "ashion": 4081,
      "ĠHowever": 4082,
      "Really": 4083,
      "ram": 4084,
      "ĠBel": 4085,
      "ĠUncle": 4086,
      "ĠAre": 4087,
      "Ġbrain": 4088,
      "itor": 4089,
      "Ġthroat": 4090,
      "ĠBrian": 4091,
      "ustom": 4092,
      "Ġrefer": 4093,
      "Ġinclude": 4094,
      "those": 4095,
      "ples": 4096,
      "lor": 4097,
      "icle": 4098,
      "ĠFrom": 4099,
      "ĠEn": 4100,
      "Ġarrest": 4101,
      "Ġslight": 4102,
      "Ġvictim": 4103,
      "Ġwet": 4104,
      "ĠMed": 4105,
      "ourney": 4106,
      "Ġalthough": 4107,
      "oughs": 4108,
      "Ġfalling": 4109,
      "Ġentered": 4110,
      "Ġpurp": 4111,
      "Ġrule": 4112,
      "bu": 4113,
      "met": 4114,
      "Ġris": 4115,
      "ighs": 4116,
      "ography": 4117,
      "rican": 4118,
      "aine": 4119,
      "ĠLi": 4120,
      "ĠHey": 4121,
      "Ġbroad": 4122,
      "ĠFraser": 4123,
      "asion": 4124,
      "ĠSal": 4125,
      "ila": 4126,
      "apers": 4127,
      "ĠParis": 4128,
      "Ġepis": 4129,
      "Ġtick": 4130,
      "Ġsearch": 4131,
      "ĠPet": 4132,
      "Ġ2012": 4133,
      "Ġrev": 4134,
      "Ġsepar": 4135,
      "ĠDutch": 4136,
      "ĠEX": 4137,
      "ĠEffie": 4138,
      "Ġraised": 4139,
      "cy": 4140,
      "arr": 4141,
      "ĠBo": 4142,
      "ĠHigh": 4143,
      "Ġ2023": 4144,
      "Ġevidence": 4145,
      "Ġwinter": 4146,
      "remember": 4147,
      "tr": 4148,
      "Ġgall": 4149,
      "ĠII": 4150,
      "ĠMor": 4151,
      "ĠWashington": 4152,
      "Ġdeg": 4153,
      "Ġ2014": 4154,
      "umphrey": 4155,
      "gigg": 4156,
      "Ġpublished": 4157,
      "Ġide": 4158,
      "ables": 4159,
      "Ġpicked": 4160,
      "ironment": 4161,
      "Ġhun": 4162,
      "Ġproject": 4163,
      "Ġ2011": 4164,
      "Does": 4165,
      "Ġrespons": 4166,
      "wow": 4167,
      "wise": 4168,
      "Ġver": 4169,
      "ooth": 4170,
      "ĠSam": 4171,
      "Ġinvolved": 4172,
      "Ġintro": 4173,
      "holds": 4174,
      "Ġmurder": 4175,
      "hum": 4176,
      "Ġcrazy": 4177,
      "Ġeast": 4178,
      "ĠHall": 4179,
      "ĠLet": 4180,
      "make": 4181,
      "wich": 4182,
      "wanna": 4183,
      "aining": 4184,
      "ession": 4185,
      "ĠLaw": 4186,
      "Ġvis": 4187,
      "Ġairplane": 4188,
      "ĠSmith": 4189,
      "AU": 4190,
      "orts": 4191,
      "Ġjoin": 4192,
      "Ġarrived": 4193,
      "Pl": 4194,
      "uk": 4195,
      "Ġkitty": 4196,
      "herry": 4197,
      "Ġ()": 4198,
      "ĠCanada": 4199,
      "Ġannounced": 4200,
      "Ġden": 4201,
      "asure": 4202,
      "Ġasleep": 4203,
      "Ġturns": 4204,
      "ĠScot": 4205,
      "pes": 4206,
      "Ġsum": 4207,
      "ĠSup": 4208,
      "ĠJew": 4209,
      "Ġlistening": 4210,
      "Ġelephant": 4211,
      "baby": 4212,
      "ĠSch": 4213,
      "aret": 4214,
      "John": 4215,
      "bing": 4216,
      "lie": 4217,
      "Ġcute": 4218,
      "Ġdriving": 4219,
      "Her": 4220,
      "aven": 4221,
      "Ġdeter": 4222,
      "eless": 4223,
      "Ġhappening": 4224,
      "Ġdirector": 4225,
      "Ġnon": 4226,
      "abeth": 4227,
      "ĠAustralia": 4228,
      "ĠLouis": 4229,
      "lam": 4230,
      "Ġscient": 4231,
      "onounced": 4232,
      "erg": 4233,
      "Ġsposta": 4234,
      "--\"": 4235,
      "ĠEleanor": 4236,
      "rank": 4237,
      "Ġpocket": 4238,
      "Ġbelow": 4239,
      "Ġmilitary": 4240,
      "Ġmessage": 4241,
      "Give": 4242,
      "Ġtaught": 4243,
      "Ġcounty": 4244,
      "Ġgives": 4245,
      "Ġterm": 4246,
      "Ġmetal": 4247,
      "Listen": 4248,
      "Ġident": 4249,
      "Ġwise": 4250,
      "ĠHere": 4251,
      "Ġended": 4252,
      "razil": 4253,
      "Ġprivate": 4254,
      "pro": 4255,
      "vies": 4256,
      "erved": 4257,
      "Ġhey": 4258,
      "Ġcocoon": 4259,
      "15": 4260,
      "uz": 4261,
      "Ġpet": 4262,
      "Ġsimple": 4263,
      "Ġtears": 4264,
      "Ġtiger": 4265,
      "ites": 4266,
      "ĠBob": 4267,
      "Ġhigher": 4268,
      "LY": 4269,
      "ux": 4270,
      "ota": 4271,
      "Ġstom": 4272,
      "ĠBE": 4273,
      "Ġtwelve": 4274,
      "Ġdelic": 4275,
      "Ã³": 4276,
      "Ġfool": 4277,
      "Ġjoy": 4278,
      "ption": 4279,
      "Ġinternational": 4280,
      "ocrat": 4281,
      "Ġwoods": 4282,
      "ĠParliament": 4283,
      "from": 4284,
      "gie": 4285,
      "Ġlines": 4286,
      "asons": 4287,
      "antic": 4288,
      "Ġjourney": 4289,
      "Ġconside": 4290,
      "Ġhasn": 4291,
      "Ġolder": 4292,
      "Ġladies": 4293,
      "Ġconsidered": 4294,
      "Ġbound": 4295,
      "Ġlaid": 4296,
      "ĠIre": 4297,
      "Ġoffer": 4298,
      "Ġ2013": 4299,
      "Ġaction": 4300,
      "ĠIsrael": 4301,
      "Ġinterested": 4302,
      "Bro": 4303,
      "bet": 4304,
      "ja": 4305,
      "ales": 4306,
      "looking": 4307,
      "atives": 4308,
      "Ġmountain": 4309,
      "Ġnatural": 4310,
      "Ġearlier": 4311,
      "Per": 4312,
      "arly": 4313,
      "Ġexam": 4314,
      "gypt": 4315,
      "12": 4316,
      "bour": 4317,
      "Ġï¿½ï¿½ï¿½ï¿½": 4318,
      "Ġbill": 4319,
      "Ġanywhere": 4320,
      "Ġbelieved": 4321,
      "keep": 4322,
      "Ġund": 4323,
      "abel": 4324,
      "Ġmanage": 4325,
      "Ġmovies": 4326,
      "Ġstarting": 4327,
      "Ġsatisf": 4328,
      "ban": 4329,
      "every": 4330,
      "Ġwag": 4331,
      "Ġyyy": 4332,
      "osing": 4333,
      "Ġfounded": 4334,
      "Ġchoice": 4335,
      "Pe": 4336,
      "ĠItalian": 4337,
      "Which": 4338,
      "GHT": 4339,
      "ari": 4340,
      "ĠMil": 4341,
      "ails": 4342,
      "Ġmagic": 4343,
      "ursday": 4344,
      "Ġmotor": 4345,
      "Ġconversation": 4346,
      "!âĢĿ": 4347,
      "Our": 4348,
      "gent": 4349,
      "Ġpic": 4350,
      "ĠMic": 4351,
      "Nothing": 4352,
      "Ġemploy": 4353,
      "Ġsoul": 4354,
      "ushing": 4355,
      "Ġawful": 4356,
      "Ġeducation": 4357,
      "bes": 4358,
      "Ġmm": 4359,
      "Ġyell": 4360,
      "ros": 4361,
      "elle": 4362,
      "ĠPen": 4363,
      "ĠST": 4364,
      "Ġsmell": 4365,
      "Ġactor": 4366,
      "gged": 4367,
      "30": 4368,
      "Was": 4369,
      "Ġmer": 4370,
      "Ġnurse": 4371,
      "Ġstairs": 4372,
      "Ġsail": 4373,
      "Ġsurv": 4374,
      "ointed": 4375,
      "ĠChristian": 4376,
      "Ġtend": 4377,
      "Ġwww": 4378,
      "Ġmouse": 4379,
      "aded": 4380,
      "ĠRobert": 4381,
      "Ġscream": 4382,
      "Ġtaste": 4383,
      "Mother": 4384,
      "Ġpath": 4385,
      "ĠBrazil": 4386,
      "ĠFrank": 4387,
      "ĠQu": 4388,
      "Ġhonest": 4389,
      "Ġfaith": 4390,
      "Very": 4391,
      "mar": 4392,
      "Ġinj": 4393,
      "ĠHumphrey": 4394,
      "ciety": 4395,
      "Ġafterwards": 4396,
      "Ġterms": 4397,
      "Ġninet": 4398,
      "ulf": 4399,
      "Ġplaced": 4400,
      "Ġhurry": 4401,
      "Ġfault": 4402,
      "Ġswimming": 4403,
      "ĠMer": 4404,
      "Ġsituation": 4405,
      "ĠRepublic": 4406,
      "ST": 4407,
      "itude": 4408,
      "Ġcovered": 4409,
      "ednes": 4410,
      "ĠRod": 4411,
      "acks": 4412,
      "thern": 4413,
      "Ġclaim": 4414,
      "Ġnumbers": 4415,
      "ĠPrince": 4416,
      "ĠCharles": 4417,
      "ednesday": 4418,
      "KEN": 4419,
      "tape": 4420,
      "Ġdrew": 4421,
      "ads": 4422,
      "ĠMel": 4423,
      "ella": 4424,
      "Ġamount": 4425,
      "Ġwheel": 4426,
      "lizabeth": 4427,
      "IR": 4428,
      "jo": 4429,
      "Ġspee": 4430,
      "Ġshowing": 4431,
      "Ġfourth": 4432,
      "Ġdistance": 4433,
      "Ġthee": 4434,
      "Ġnote": 4435,
      "ĠScott": 4436,
      "Sir": 4437,
      "lim": 4438,
      "Ġeff": 4439,
      "ishop": 4440,
      "Ġsettle": 4441,
      "Ġlocated": 4442,
      "oved": 4443,
      "arrow": 4444,
      "lebr": 4445,
      "Ġeconom": 4446,
      "ĠWomen": 4447,
      "olt": 4448,
      "ongress": 4449,
      "Ġmachine": 4450,
      "Ġdinosaur": 4451,
      "call": 4452,
      "esus": 4453,
      "Ġhuge": 4454,
      "vere": 4455,
      "Ġthrew": 4456,
      "Ġbye": 4457,
      "looks": 4458,
      "Ġexpected": 4459,
      "Pro": 4460,
      "ĠME": 4461,
      "cean": 4462,
      "ĠPri": 4463,
      "ĠGeneral": 4464,
      "Ġagreed": 4465,
      "Ġregard": 4466,
      "Ġbull": 4467,
      "Ġcamer": 4468,
      "Ġcivil": 4469,
      "Ġpleased": 4470,
      "atter": 4471,
      "Ġnature": 4472,
      "ĠCome": 4473,
      "ĠWho": 4474,
      "Ġscr": 4475,
      "ĠUnion": 4476,
      "Ġaddress": 4477,
      "Ġsimilar": 4478,
      "Ġopport": 4479,
      "ĠOlympics": 4480,
      "orks": 4481,
      "vey": 4482,
      "ĠTV": 4483,
      "roll": 4484,
      "urt": 4485,
      "atic": 4486,
      "uckles": 4487,
      "Ġmissing": 4488,
      "Ġmissed": 4489,
      "Aye": 4490,
      "Ke": 4491,
      "big": 4492,
      "Ġsens": 4493,
      "Ġpill": 4494,
      "uset": 4495,
      "Ġskin": 4496,
      "omp": 4497,
      "ĠCromer": 4498,
      "ĠOkay": 4499,
      "Ġcommunity": 4500,
      "whining": 4501,
      "Ġtraining": 4502,
      "Ġgentleman": 4503,
      "Excuse": 4504,
      "ourage": 4505,
      "Ġcrowd": 4506,
      "Ġtone": 4507,
      "Ġaward": 4508,
      "asc": 4509,
      "Ġplain": 4510,
      "Ġsett": 4511,
      "Tr": 4512,
      "reys": 4513,
      "Ġdread": 4514,
      "Ġagree": 4515,
      "ĠYour": 4516,
      "ĠChurch": 4517,
      "uesday": 4518,
      "Ġimmediately": 4519,
      "**": 4520,
      "Ġsuit": 4521,
      "Ġ(;": 4522,
      "ossible": 4523,
      "Ġseventy": 4524,
      "giggles": 4525,
      "ingly": 4526,
      "arian": 4527,
      "ĠMal": 4528,
      "Ġcalls": 4529,
      "Ġmistake": 4530,
      "Ġrabbit": 4531,
      "ĠSen": 4532,
      "Ġhadn": 4533,
      "ago": 4534,
      "Ġmovement": 4535,
      "Ġrecorder": 4536,
      "Ġwatched": 4537,
      "AB": 4538,
      "low": 4539,
      "high": 4540,
      "sm": 4541,
      "try": 4542,
      "Ġsize": 4543,
      "llen": 4544,
      "uts": 4545,
      "enced": 4546,
      "Dr": 4547,
      "ais": 4548,
      "five": 4549,
      "real": 4550,
      "ĠSummer": 4551,
      "outher": 4552,
      "Ġnotice": 4553,
      "Ġmanner": 4554,
      "Ġ2010": 4555,
      "ledge": 4556,
      "Ġexcited": 4557,
      "Ġwearing": 4558,
      "Ġinvestig": 4559,
      "ĠUrsula": 4560,
      "Se": 4561,
      "log": 4562,
      "vi": 4563,
      "hered": 4564,
      "ĠGO": 4565,
      "Ġgrown": 4566,
      "achuset": 4567,
      "itan": 4568,
      "Ġfre": 4569,
      "Ġpair": 4570,
      "ache": 4571,
      "Ġur": 4572,
      "ANT": 4573,
      "achusetts": 4574,
      "Dad": 4575,
      "book": 4576,
      "ators": 4577,
      "ĠRos": 4578,
      "ĠJose": 4579,
      "Ġfilled": 4580,
      "hest": 4581,
      "inct": 4582,
      "Ġvote": 4583,
      "Ġremem": 4584,
      "ials": 4585,
      "atoes": 4586,
      "Ġnap": 4587,
      "ĠAc": 4588,
      "Ġshad": 4589,
      "Ġcollege": 4590,
      "Ġimagine": 4591,
      "Ġdancing": 4592,
      "sociation": 4593,
      "Ġstran": 4594,
      "ĠRo": 4595,
      "Ġsmart": 4596,
      "Ġsongs": 4597,
      "Ġstreng": 4598,
      "Ġproduced": 4599,
      "da": 4600,
      "Ġcart": 4601,
      "Ġtherefore": 4602,
      "First": 4603,
      "nie": 4604,
      "Ġwest": 4605,
      "Ġdig": 4606,
      "vell": 4607,
      "ĠBert": 4608,
      "elly": 4609,
      "umber": 4610,
      "olic": 4611,
      "bered": 4612,
      "Ġcapt": 4613,
      "Ġassist": 4614,
      "Ġdiscovered": 4615,
      "Ġspeed": 4616,
      "outhern": 4617,
      "14": 4618,
      "ien": 4619,
      "mel": 4620,
      "ĠRome": 4621,
      "Ġdise": 4622,
      "Ġteach": 4623,
      "www": 4624,
      "Ġflying": 4625,
      "ĠMarcia": 4626,
      "mommy": 4627,
      "Ġbal": 4628,
      "ults": 4629,
      "Ġcolors": 4630,
      "Ġstudied": 4631,
      "Ġrocket": 4632,
      "Ġoriginal": 4633,
      "cis": 4634,
      "Ġfol": 4635,
      "Ġbridge": 4636,
      "Ġresult": 4637,
      "Ġbeside": 4638,
      "ini": 4639,
      "using": 4640,
      "hips": 4641,
      "Ġspl": 4642,
      "action": 4643,
      "avis": 4644,
      "Ġknife": 4645,
      "ĠSpanish": 4646,
      "Daddy": 4647,
      "down": 4648,
      "Ġ!": 4649,
      "asy": 4650,
      "ĠMac": 4651,
      "itely": 4652,
      "rance": 4653,
      "Ġdecision": 4654,
      "Ġsentence": 4655,
      "Ġlanguages": 4656,
      "ĠPeople": 4657,
      "Ġquarter": 4658,
      "ĠMassachusetts": 4659,
      "oups": 4660,
      "ĠCamp": 4661,
      "ĠKitty": 4662,
      "Ġregular": 4663,
      "Ġhonor": 4664,
      "Ġcloser": 4665,
      "History": 4666,
      "Sure": 4667,
      "zen": 4668,
      "anda": 4669,
      "ĠDep": 4670,
      "ĠLat": 4671,
      "ĠJoe": 4672,
      "cks": 4673,
      "ĠOK": 4674,
      "Ġturtle": 4675,
      "16": 4676,
      "Ġcousin": 4677,
      "Ġpink": 4678,
      "ĠTri": 4679,
      "andra": 4680,
      "Ġdebut": 4681,
      "ĠGold": 4682,
      "ittee": 4683,
      "Ġmedic": 4684,
      "Ġchimney": 4685,
      "takes": 4686,
      "ĠBat": 4687,
      "oph": 4688,
      "Ġlargest": 4689,
      "gl": 4690,
      "stop": 4691,
      "ĠWhere": 4692,
      "ights": 4693,
      "ĠEr": 4694,
      "Ġunless": 4695,
      "ivid": 4696,
      "Ġhardly": 4697,
      "Ġfavour": 4698,
      "Ġshirt": 4699,
      "ĠJer": 4700,
      "ELL": 4701,
      "ĠThomas": 4702,
      "Ġdangerous": 4703,
      "Miss": 4704,
      "HING": 4705,
      "Ġemb": 4706,
      "Ġdeli": 4707,
      "Ġfeat": 4708,
      "Ġhistor": 4709,
      "ĠRussia": 4710,
      "Ġzoo": 4711,
      "Ġlength": 4712,
      "Ġpicnic": 4713,
      "itzer": 4714,
      "Ġcult": 4715,
      "ĠWood": 4716,
      "anced": 4717,
      "Ġindepend": 4718,
      "Ġcorrect": 4719,
      "ba": 4720,
      "vious": 4721,
      "Ġcoun": 4722,
      "ĠFox": 4723,
      "Ġcondu": 4724,
      "usion": 4725,
      "ĠDist": 4726,
      "oday": 4727,
      "ĠArmy": 4728,
      "Ġexperience": 4729,
      "back": 4730,
      "hall": 4731,
      "Ġplant": 4732,
      "Ġmonkey": 4733,
      "Ġpromised": 4734,
      "Ġsquare": 4735,
      "Ġcastle": 4736,
      "ita": 4737,
      "Ġdirty": 4738,
      "Ġthus": 4739,
      "Ġstock": 4740,
      "elp": 4741,
      "Ġworried": 4742,
      "ensus": 4743,
      "Ġsurprised": 4744,
      "eer": 4745,
      "ij": 4746,
      "viet": 4747,
      "Ġhid": 4748,
      "Ġmeaning": 4749,
      "ĠThursday": 4750,
      "Marky": 4751,
      "Ġnet": 4752,
      "ify": 4753,
      "Ġsaved": 4754,
      "Ġtwice": 4755,
      "mpion": 4756,
      "Ġbrothers": 4757,
      "Ġcelebr": 4758,
      "Ġtotal": 4759,
      "ois": 4760,
      "inger": 4761,
      "ĠEgypt": 4762,
      "Ġpicks": 4763,
      "Ġimpro": 4764,
      "Ġparticularly": 4765,
      "ournal": 4766,
      "Man": 4767,
      "Ġaud": 4768,
      "Ġlap": 4769,
      "Ġneither": 4770,
      "Ġdeb": 4771,
      "Ġcoach": 4772,
      "ugo": 4773,
      "Ġstrugg": 4774,
      "rica": 4775,
      "Ġartist": 4776,
      "Ġtemper": 4777,
      "pa": 4778,
      "upp": 4779,
      "Ġtou": 4780,
      "eta": 4781,
      "Ġgods": 4782,
      "Ġoppos": 4783,
      "cellent": 4784,
      "13": 4785,
      "only": 4786,
      "Ġpushed": 4787,
      "ĠAward": 4788,
      "ellig": 4789,
      "Ġusual": 4790,
      "Ġfemale": 4791,
      "dad": 4792,
      "Ġmult": 4793,
      "Ġareas": 4794,
      "inda": 4795,
      "Ġcoat": 4796,
      "Ġcheer": 4797,
      "Ġescape": 4798,
      "Le": 4799,
      ".,": 4800,
      "Ġplenty": 4801,
      "Ġexplain": 4802,
      "Ġdefin": 4803,
      "ĠClaus": 4804,
      "Ġinflu": 4805,
      "cut": 4806,
      "ĠLab": 4807,
      "Ġearn": 4808,
      "ÃŃs": 4809,
      "Ma": 4810,
      "bur": 4811,
      "vert": 4812,
      "Ġneat": 4813,
      "ĠWednesday": 4814,
      "Ġ190": 4815,
      "iana": 4816,
      "50": 4817,
      "Ġhill": 4818,
      "ĠJul": 4819,
      "Ġspeech": 4820,
      "Gu": 4821,
      "show": 4822,
      "icated": 4823,
      "alley": 4824,
      "ĠSpain": 4825,
      "Ġpurpose": 4826,
      "Ġcouch": 4827,
      "Ġappre": 4828,
      "Ġruns": 4829,
      "inese": 4830,
      "Ġcalm": 4831,
      "sings": 4832,
      "onse": 4833,
      "Ġble": 4834,
      "Ġeager": 4835,
      "Ġgroups": 4836,
      "Ġspecies": 4837,
      "Ġsharp": 4838,
      "iant": 4839,
      "Ġduty": 4840,
      "ĠAir": 4841,
      "chie": 4842,
      "ĠRec": 4843,
      "Ġrough": 4844,
      "Ġbless": 4845,
      "Ġpersonal": 4846,
      "Ġabsolutely": 4847,
      "Ġlucky": 4848,
      "200": 4849,
      "hod": 4850,
      "Ġtax": 4851,
      "Ġmater": 4852,
      "Ġinqu": 4853,
      "Ġhell": 4854,
      "Ġbeauty": 4855,
      "Ġnineteen": 4856,
      "aign": 4857,
      "oid": 4858,
      "Ġwake": 4859,
      "Ġfirm": 4860,
      "enth": 4861,
      "ferent": 4862,
      "Ġrap": 4863,
      "Ġobviously": 4864,
      "Ġtravel": 4865,
      "Ġbathroom": 4866,
      "Ġempty": 4867,
      "Ġcomputer": 4868,
      "Ġwound": 4869,
      "ĠCath": 4870,
      "ĠDid": 4871,
      "Ġdrinking": 4872,
      "Ġet": 4873,
      "Ġstrawber": 4874,
      "Ġlips": 4875,
      "Ġtrip": 4876,
      "Only": 4877,
      "Ġsuspect": 4878,
      "Ġradio": 4879,
      "Ġdarling": 4880,
      "ocratic": 4881,
      "CT": 4882,
      "Could": 4883,
      "SE": 4884,
      "Ġfro": 4885,
      "ĠBer": 4886,
      "ĠDO": 4887,
      "ĠDis": 4888,
      "Ġroof": 4889,
      "Ġshoot": 4890,
      "Ġclearly": 4891,
      "Ġquietly": 4892,
      "Ġresearch": 4893,
      "ship": 4894,
      "Ġtap": 4895,
      "oms": 4896,
      "Ġdoin": 4897,
      "ĠDes": 4898,
      "Ġimpossible": 4899,
      "Ġeasily": 4900,
      "Ġwriter": 4901,
      "EXP": 4902,
      "Um": 4903,
      "rid": 4904,
      "ograph": 4905,
      "ENT": 4906,
      "Sp": 4907,
      "rough": 4908,
      "ĠTuesday": 4909,
      "ĠBet": 4910,
      "ĠDuke": 4911,
      "ĠFred": 4912,
      "Ġpulled": 4913,
      "cul": 4914,
      "ĠBoy": 4915,
      "Ġelected": 4916,
      "ĠĠĠĠĠĠĠĠĠĠĠĠĠĠĠĠĠĠĠĠĠĠĠĠĠĠĠĠĠĠĠĠ": 4917,
      "Ġepisode": 4918,
      "could": 4919,
      "little": 4920,
      "vince": 4921,
      "Ġwit": 4922,
      "oured": 4923,
      "Ġweather": 4924,
      "ĠBill": 4925,
      "Am": 4926,
      "after": 4927,
      "first": 4928,
      "Ġsour": 4929,
      "Ġdouble": 4930,
      "urry": 4931,
      "iece": 4932,
      "Ġpercent": 4933,
      "Ġwalks": 4934,
      "Ġcontinue": 4935,
      "Ġholiday": 4936,
      "cat": 4937,
      "ker": 4938,
      "lla": 4939,
      "Ġpool": 4940,
      "ĠMo": 4941,
      "ĠGreen": 4942,
      "Ġscene": 4943,
      "softly": 4944,
      "Nina": 4945,
      "cake": 4946,
      "ns": 4947,
      "net": 4948,
      "ners": 4949,
      "Ġcouncil": 4950,
      "oring": 4951,
      "Ġgate": 4952,
      "ively": 4953,
      "Ġtrick": 4954,
      "Ġconstruction": 4955,
      "Ġharm": 4956,
      "Ġdistribut": 4957,
      "Ġneighbor": 4958,
      "Ġjudge": 4959,
      "Ġloss": 4960,
      "ĠFirst": 4961,
      "Ġstruck": 4962,
      "Ġdecide": 4963,
      "Ġsandwich": 4964,
      "ishes": 4965,
      "cely": 4966,
      "Ġmonster": 4967,
      "ĠEarth": 4968,
      "WE": 4969,
      "lig": 4970,
      "leng": 4971,
      "rees": 4972,
      "Ġsoup": 4973,
      "aled": 4974,
      "ste": 4975,
      "cts": 4976,
      "Ġshoo": 4977,
      "Ġshown": 4978,
      "Ġheads": 4979,
      "Ġstudents": 4980,
      "_,": 4981,
      "Ġfought": 4982,
      "isted": 4983,
      "Ġtells": 4984,
      "ĠInternational": 4985,
      "Ġsecurity": 4986,
      "itzerland": 4987,
      "Ã¨": 4988,
      "ona": 4989,
      "Ġpour": 4990,
      "Ġliter": 4991,
      "oma": 4992,
      "Ġflower": 4993,
      "Ġcrime": 4994,
      "Ġperfectly": 4995,
      "Ġblanket": 4996,
      "Gr": 4997,
      "bury": 4998,
      "coughs": 4999,
      "Ġtong": 5000,
      "ching": 5001,
      "cend": 5002,
      "Ġaccording": 5003,
      "ĠSoviet": 5004,
      "Ġoccur": 5005,
      "Ġprincess": 5006,
      "Ġdeclared": 5007,
      "Ġnecessary": 5008,
      "had": 5009,
      "Ġoil": 5010,
      "ava": 5011,
      "Ġfixed": 5012,
      "Ġbowl": 5013,
      "Ġtar": 5014,
      "Ġunc": 5015,
      "Ġcaptain": 5016,
      "Ġpaint": 5017,
      "Ġgentlemen": 5018,
      "ĠSecret": 5019,
      "aches": 5020,
      "Ġexcuse": 5021,
      "whispers": 5022,
      "Ġanxious": 5023,
      "SI": 5024,
      "ĠMike": 5025,
      "Ġrate": 5026,
      "cky": 5027,
      "Ġgreatest": 5028,
      "Ġkeeping": 5029,
      "Ġdemand": 5030,
      "Ġmic": 5031,
      "aries": 5032,
      "ĠWil": 5033,
      "ĠRose": 5034,
      "ĠLuc": 5035,
      "ĠElizabeth": 5036,
      "ĠBrown": 5037,
      "Ġdesp": 5038,
      "Ġoccup": 5039,
      "ĠSwitzerland": 5040,
      "Ġdefend": 5041,
      "Sis": 5042,
      "ĠSer": 5043,
      "Ġfruit": 5044,
      "Ġholds": 5045,
      "Ġdevelopment": 5046,
      "Ġenvironment": 5047,
      "Ġfashion": 5048,
      "hoe": 5049,
      "Ġdisco": 5050,
      "?'": 5051,
      "Ġhotel": 5052,
      "Ġfrightened": 5053,
      "Car": 5054,
      "tles": 5055,
      "nods": 5056,
      "esty": 5057,
      "Ġarrow": 5058,
      "Ġjumped": 5059,
      "Ġcompeted": 5060,
      "ĠAfrican": 5061,
      "Ġavail": 5062,
      "ĠChampionship": 5063,
      "Bl": 5064,
      "tin": 5065,
      "reg": 5066,
      "Ġweak": 5067,
      "ĠLot": 5068,
      "Ġ40": 5069,
      "ĠFrancis": 5070,
      "ĠAldred": 5071,
      "Ġah": 5072,
      "inist": 5073,
      "Ġinf": 5074,
      "adian": 5075,
      "ĠMet": 5076,
      "ĠMus": 5077,
      "Ġchampions": 5078,
      "Ġpleasant": 5079,
      "ique": 5080,
      "loud": 5081,
      "roo": 5082,
      "vis": 5083,
      "Ġtv": 5084,
      "tering": 5085,
      "ĠEric": 5086,
      "Ġcamera": 5087,
      "Ph": 5088,
      "YOU": 5089,
      "fit": 5090,
      "Ġfund": 5091,
      "Ġfoc": 5092,
      "Ġham": 5093,
      "Ġthy": 5094,
      "berg": 5095,
      "Ġappl": 5096,
      "rupt": 5097,
      "Ġpossibly": 5098,
      "Ġopin": 5099,
      "Ġwooden": 5100,
      "gas": 5101,
      "Ġfancy": 5102,
      "Ġdoc": 5103,
      "Ġmanaged": 5104,
      "iction": 5105,
      "Ġscary": 5106,
      "Ġcontact": 5107,
      "appy": 5108,
      "Ġgrave": 5109,
      "really": 5110,
      "Ġvac": 5111,
      "Ġqueen": 5112,
      "Ġcoast": 5113,
      "Ġimm": 5114,
      "Ġcompetition": 5115,
      "ele": 5116,
      "Ġsac": 5117,
      "Ġbi": 5118,
      "Ġcant": 5119,
      "irgin": 5120,
      "Ġmarriage": 5121,
      "Ġ50": 5122,
      "ĠIsland": 5123,
      "Ġcircus": 5124,
      "Ġsusp": 5125,
      "recorder": 5126,
      "Ġscience": 5127,
      "Ġcuri": 5128,
      "Ġcustom": 5129,
      "ĠMont": 5130,
      "ĠDar": 5131,
      "ĠChina": 5132,
      "Ġsilence": 5133,
      "enny": 5134,
      "Ġmeal": 5135,
      "ĠHan": 5136,
      "acket": 5137,
      "ĠLa": 5138,
      "ccording": 5139,
      "Ġcontinues": 5140,
      "mom": 5141,
      "Ġthick": 5142,
      "Ġwilln": 5143,
      "ĠScotland": 5144,
      "Ġdisease": 5145,
      "Care": 5146,
      "Ġcred": 5147,
      "Ġbeha": 5148,
      "Ġenergy": 5149,
      "Ġdishes": 5150,
      "Ġremained": 5151,
      "Ġrail": 5152,
      "Ġleading": 5153,
      "icycle": 5154,
      "Ġir": 5155,
      "Ġtight": 5156,
      "Ġnurs": 5157,
      "ĠEmp": 5158,
      "Ġadvent": 5159,
      "ae": 5160,
      "last": 5161,
      "may": 5162,
      "rig": 5163,
      "Ġchannel": 5164,
      "UST": 5165,
      "Ġdoggie": 5166,
      "water": 5167,
      "Ġpitched": 5168,
      "ĠMabel": 5169,
      "illa": 5170,
      "Ġdeterm": 5171,
      "Ben": 5172,
      "sighs": 5173,
      "Ġnovel": 5174,
      "Ġlibr": 5175,
      "umps": 5176,
      "cip": 5177,
      "Ġnewsp": 5178,
      "Ġacqu": 5179,
      "Ġdolly": 5180,
      "Ġprepared": 5181,
      "Ġrom": 5182,
      "Ġyouth": 5183,
      "imate": 5184,
      "Ġrow": 5185,
      "ĠJud": 5186,
      "Ġattract": 5187,
      "Ġdirection": 5188,
      "Ġestabl": 5189,
      "Ġstrength": 5190,
      "May": 5191,
      "fall": 5192,
      "pet": 5193,
      "heart": 5194,
      "Ġmut": 5195,
      "ala": 5196,
      "ĠMolly": 5197,
      "Ġnoticed": 5198,
      "ilda": 5199,
      "ildred": 5200,
      "Ġcenter": 5201,
      "Ġtow": 5202,
      "Ġcancer": 5203,
      "useum": 5204,
      "aked": 5205,
      "Ġcontract": 5206,
      "Ġgiant": 5207,
      "Ġcentre": 5208,
      "aves": 5209,
      "Ġstret": 5210,
      "ĠTHAT": 5211,
      "ĠDay": 5212,
      "peror": 5213,
      "pens": 5214,
      "Ġseconds": 5215,
      "Eve": 5216,
      "bell": 5217,
      "oves": 5218,
      "rans": 5219,
      "Ġsword": 5220,
      "ederal": 5221,
      "LI": 5222,
      "Ġbang": 5223,
      "Ġstream": 5224,
      "Ġarch": 5225,
      "Ġourselves": 5226,
      "anges": 5227,
      "Ġhelping": 5228,
      "Che": 5229,
      "Ġma": 5230,
      "Ġlower": 5231,
      "ĠCast": 5232,
      "eaks": 5233,
      "Ġremind": 5234,
      "Ġcarefully": 5235,
      "Ġcandy": 5236,
      "known": 5237,
      "ouri": 5238,
      "Ġsides": 5239,
      "lem": 5240,
      "imb": 5241,
      "ĠHE": 5242,
      "Ġ2005": 5243,
      "Ġ2009": 5244,
      "ĠIran": 5245,
      "Ġhi": 5246,
      "otion": 5247,
      "Ġbutton": 5248,
      "Ġshore": 5249,
      "istan": 5250,
      "ĠZara": 5251,
      "Ġpractice": 5252,
      "Ġopportunity": 5253,
      "?]": 5254,
      "gn": 5255,
      "mit": 5256,
      "itation": 5257,
      "Ġgro": 5258,
      "Ġgaz": 5259,
      "Ġhandle": 5260,
      "whoa": 5261,
      "\"]": 5262,
      "wr": 5263,
      "ademy": 5264,
      "Ġsaf": 5265,
      "Ġ2007": 5266,
      "Mhm": 5267,
      "Ġfurn": 5268,
      "aning": 5269,
      "Ġstorm": 5270,
      "outs": 5271,
      "osh": 5272,
      "ĠIts": 5273,
      "Ġ2008": 5274,
      "Ġofficial": 5275,
      "Ġweird": 5276,
      "Ġnea": 5277,
      "Ġformed": 5278,
      "ĠMaster": 5279,
      "ĠHa": 5280,
      "ĠDel": 5281,
      "eman": 5282,
      "Ġdisp": 5283,
      "Ġcrown": 5284,
      "ĠChief": 5285,
      "Ġopening": 5286,
      "Ġplane": 5287,
      "aching": 5288,
      "Ġdriver": 5289,
      "Ġmotion": 5290,
      "ĠAfrica": 5291,
      "Ġboots": 5292,
      "uten": 5293,
      "iring": 5294,
      "Ġprice": 5295,
      "Ġgreater": 5296,
      "Ġfifteen": 5297,
      "ĠJoseph": 5298,
      "kins": 5299,
      "inet": 5300,
      "Ġpan": 5301,
      "ĠTw": 5302,
      "ura": 5303,
      "chuckles": 5304,
      "ĠEvery": 5305,
      "Ġsmiled": 5306,
      "ontin": 5307,
      "Ġ2004": 5308,
      "ĠPrin": 5309,
      "Ġextreme": 5310,
      "Ġsouthw": 5311,
      "hal": 5312,
      "ilies": 5313,
      "Ġshr": 5314,
      "Ġinterview": 5315,
      "Ġcampaign": 5316,
      "----------------": 5317,
      "dr": 5318,
      "face": 5319,
      "isn": 5320,
      "Ġcherry": 5321,
      "Ġlion": 5322,
      "ication": 5323,
      "ĠSus": 5324,
      "ĠCam": 5325,
      "Ġchoose": 5326,
      "Ġlights": 5327,
      "Ġpainting": 5328,
      "Ġsteps": 5329,
      "ĠJapanese": 5330,
      "Act": 5331,
      "gress": 5332,
      "yellow": 5333,
      "Ġwrest": 5334,
      "Ġpin": 5335,
      "ĠGar": 5336,
      "ĠFire": 5337,
      "osc": 5338,
      "Ġmentioned": 5339,
      "Ġmemory": 5340,
      "ĠEXP": 5341,
      "Ġstomach": 5342,
      "Ġappreci": 5343,
      "bly": 5344,
      "Ġbare": 5345,
      "Ġdying": 5346,
      "Ġye": 5347,
      "Ġlog": 5348,
      "etch": 5349,
      "ems": 5350,
      "ĠChinese": 5351,
      "Ġ2006": 5352,
      "ippi": 5353,
      "gen": 5354,
      "athy": 5355,
      "ĠIS": 5356,
      "herlands": 5357,
      "ĠPercy": 5358,
      "ĠIslam": 5359,
      "Ġsoldier": 5360,
      "Ġhanging": 5361,
      "Ġorders": 5362,
      "People": 5363,
      "Ġtries": 5364,
      "Ġboss": 5365,
      "ĠWind": 5366,
      "Ġdownstairs": 5367,
      "Ġkinds": 5368,
      "Ġchanges": 5369,
      "Ġofficers": 5370,
      "ification": 5371,
      "Ġevents": 5372,
      "rooge": 5373,
      "OUR": 5374,
      "Ġmerry": 5375,
      "Ġpig": 5376,
      "lected": 5377,
      "Ġmere": 5378,
      "ĠHER": 5379,
      "ilities": 5380,
      "Ġprevent": 5381,
      "Ġstring": 5382,
      "Ġgrowing": 5383,
      "Ġtongue": 5384,
      "Ġfold": 5385,
      "Ġeld": 5386,
      "kel": 5387,
      "iel": 5388,
      "Ġplans": 5389,
      "Ġphil": 5390,
      "Ġsisters": 5391,
      "ĠJean": 5392,
      "EA": 5393,
      "Never": 5394,
      "ĠCHI": 5395,
      "Ġfra": 5396,
      "ardon": 5397,
      "Ġprim": 5398,
      "Ġmoves": 5399,
      "Ġowned": 5400,
      "ocal": 5401,
      "Ġfallen": 5402,
      "Ġterror": 5403,
      "Ġversion": 5404,
      "IC": 5405,
      "too": 5406,
      "ouds": 5407,
      "Ġsch": 5408,
      "Ġdare": 5409,
      "ĠMinn": 5410,
      "ends": 5411,
      "Ġprint": 5412,
      "Ġactress": 5413,
      "ĠJeffreys": 5414,
      "Ġsettled": 5415,
      "anch": 5416,
      "Ġpapers": 5417,
      "Ġnoble": 5418,
      "Ġnerv": 5419,
      "ĠHugo": 5420,
      "Ġknowing": 5421,
      "Ġfeels": 5422,
      "ealand": 5423,
      "draw": 5424,
      "another": 5425,
      "ĠRes": 5426,
      "Ġrings": 5427,
      "Ġkiller": 5428,
      "box": 5429,
      "Ġresponse": 5430,
      "Ġwings": 5431,
      "Ġlord": 5432,
      "ador": 5433,
      "Ġknowledge": 5434,
      "ĠFOR": 5435,
      "Ġtrade": 5436,
      "ĠZealand": 5437,
      "Ġgolden": 5438,
      "Ġwed": 5439,
      "kend": 5440,
      "Ġflight": 5441,
      "Ġcarrying": 5442,
      "Ġkeeps": 5443,
      "Ġsmaller": 5444,
      "ĠBritain": 5445,
      "VER": 5446,
      "Ġnomin": 5447,
      "ĠTown": 5448,
      "Ġuses": 5449,
      "iano": 5450,
      "Ġblind": 5451,
      "Ġtext": 5452,
      "Ġpoet": 5453,
      "Ġchem": 5454,
      "Ġ2003": 5455,
      "Ġmodern": 5456,
      "bel": 5457,
      "Ġbump": 5458,
      "Ġpound": 5459,
      "ĠSun": 5460,
      "ĠMur": 5461,
      "ĠWestern": 5462,
      "place": 5463,
      "Ġindivid": 5464,
      "199": 5465,
      "Ġteams": 5466,
      "Ġconcerned": 5467,
      "lengthened": 5468,
      "sed": 5469,
      "uf": 5470,
      "cel": 5471,
      "Ġsuc": 5472,
      "ucky": 5473,
      "Ġremain": 5474,
      "Ġtrial": 5475,
      "Ġdreams": 5476,
      "Ġnormal": 5477,
      "ĠSuper": 5478,
      "Ġbrief": 5479,
      "issippi": 5480,
      "izing": 5481,
      "ĠIreland": 5482,
      "melon": 5483,
      "mark": 5484,
      "nothing": 5485,
      "amin": 5486,
      "ops": 5487,
      "ĠTheir": 5488,
      "oston": 5489,
      "Ġqual": 5490,
      "Ġmarry": 5491,
      "ĠAssociation": 5492,
      "Ġeasier": 5493,
      "Ġjoke": 5494,
      "Ġwaited": 5495,
      "Ġrules": 5496,
      "ĠAustrian": 5497,
      "ĠNetherlands": 5498,
      "Ġideas": 5499,
      "lend": 5500,
      "aki": 5501,
      "pering": 5502,
      "Ġcruel": 5503,
      "Ġ1990": 5504,
      "Ġwindows": 5505,
      "fortun": 5506,
      "Ġoccasion": 5507,
      "Ġdrawing": 5508,
      "Ġwhispered": 5509,
      "ĠGreek": 5510,
      "rish": 5511,
      "Ġess": 5512,
      "Ġmail": 5513,
      "asing": 5514,
      "Ġsake": 5515,
      "ĠDra": 5516,
      "ĠBrad": 5517,
      "Ġretired": 5518,
      "Ġfrogs": 5519,
      "Ġfigures": 5520,
      "ĠDistrict": 5521,
      "Ġsucceed": 5522,
      "Ed": 5523,
      "MAL": 5524,
      "Ġemer": 5525,
      "Ġmatches": 5526,
      "Early": 5527,
      "Ġdish": 5528,
      "sequ": 5529,
      "Ġflag": 5530,
      "Ġhelmet": 5531,
      "Ġschools": 5532,
      "Ġswing": 5533,
      "Ġbedroom": 5534,
      "ĠMississippi": 5535,
      "Ġburst": 5536,
      "ĠCollege": 5537,
      "Ġestablished": 5538,
      "OD": 5539,
      "craft": 5540,
      "Ġstro": 5541,
      "Ġuseta": 5542,
      "Ġmostly": 5543,
      "iety": 5544,
      "Ġwheels": 5545,
      "arently": 5546,
      "ĠEmpire": 5547,
      "Ġsafety": 5548,
      "Je": 5549,
      "bon": 5550,
      "while": 5551,
      "ĠServ": 5552,
      "ĠBur": 5553,
      "ĠHol": 5554,
      "Ġworst": 5555,
      "ollip": 5556,
      "avar": 5557,
      "Ġrocks": 5558,
      "Ġwalls": 5559,
      "gt": 5560,
      "run": 5561,
      "yell": 5562,
      "Ġfond": 5563,
      "Ġinno": 5564,
      "Ġ2000": 5565,
      "Ġtalks": 5566,
      "Ġshape": 5567,
      "ĠMaria": 5568,
      "pronounced": 5569,
      "Ġforever": 5570,
      "Ġconstit": 5571,
      "Ġforgotten": 5572,
      "ĠAngela": 5573,
      "oons": 5574,
      "ule": 5575,
      "vo": 5576,
      "ĠHam": 5577,
      "ĠOld": 5578,
      "Ġexecut": 5579,
      "Great": 5580,
      "aun": 5581,
      "ez": 5582,
      "Ġwished": 5583,
      "Ġsen": 5584,
      "ĠMany": 5585,
      "Ġarg": 5586,
      "Ġsigned": 5587,
      "Ġbabies": 5588,
      "ME": 5589,
      "Ġforces": 5590,
      "ĠRoyal": 5591,
      "ĠVery": 5592,
      "Ġyounger": 5593,
      "ĠMissouri": 5594,
      "ĠCanadian": 5595,
      "aura": 5596,
      "Ġmodel": 5597,
      "Fr": 5598,
      "Ġbomb": 5599,
      "nolog": 5600,
      "Ġhug": 5601,
      "rif": 5602,
      "ĠMajor": 5603,
      "Ġmel": 5604,
      "ĠPapa": 5605,
      "ĠRock": 5606,
      "Ġplants": 5607,
      "Ġvot": 5608,
      "Ġwilling": 5609,
      "Ġproceed": 5610,
      "Ġloves": 5611,
      "Ġnuts": 5612,
      "Ġrepeated": 5613,
      "Ġbike": 5614,
      "Ġwaste": 5615,
      "ado": 5616,
      "ĠMat": 5617,
      "Ġupset": 5618,
      "Ġcomed": 5619,
      "Ġattend": 5620,
      "Ġleaders": 5621,
      "Ġpowerful": 5622,
      "ĠSwed": 5623,
      "ĠMexico": 5624,
      "Ind": 5625,
      "PE": 5626,
      "Wow": 5627,
      "onia": 5628,
      "Ġple": 5629,
      "Ġghost": 5630,
      "ĠSk": 5631,
      "Ġant": 5632,
      "ĠFore": 5633,
      "Ġplat": 5634,
      "Ġmanager": 5635,
      "Ġsomethin": 5636,
      "Ġpresents": 5637,
      "ĠFlor": 5638,
      "sych": 5639,
      "Ġrapid": 5640,
      "eed": 5641,
      "fess": 5642,
      "Ġtheory": 5643,
      "usage": 5644,
      "rial": 5645,
      "Ġsociety": 5646,
      "Ġjournal": 5647,
      "olars": 5648,
      "gery": 5649,
      "Ġ2001": 5650,
      "Ġaware": 5651,
      "Ġhighest": 5652,
      "ĠCatholic": 5653,
      "year": 5654,
      "happy": 5655,
      "Ġfaces": 5656,
      "arily": 5657,
      "ĠWAS": 5658,
      "Ġrise": 5659,
      "Ġunion": 5660,
      "Ġavailable": 5661,
      "uan": 5662,
      "Ġbother": 5663,
      "Ġcases": 5664,
      "Ġcensus": 5665,
      "ening": 5666,
      "Ġpurs": 5667,
      "Ġweight": 5668,
      "semb": 5669,
      "stood": 5670,
      "ĠThank": 5671,
      "ĠLos": 5672,
      "Ġpeas": 5673,
      "Ġstrawberries": 5674,
      "HO": 5675,
      "something": 5676,
      "ero": 5677,
      "ĠLee": 5678,
      "Ġclouds": 5679,
      "ĠVal": 5680,
      "Ġfinding": 5681,
      "Ġ31": 5682,
      "Ġeleven": 5683,
      "Ġmedical": 5684,
      "Keep": 5685,
      "Amer": 5686,
      "walk": 5687,
      "Ġho": 5688,
      "ushes": 5689,
      "aming": 5690,
      "ĠCongress": 5691,
      "ĠFin": 5692,
      "arts": 5693,
      "Ġfeelings": 5694,
      "ĠEarl": 5695,
      "Ġreligious": 5696,
      "Ġfal": 5697,
      "icles": 5698,
      "ading": 5699,
      "ĠSim": 5700,
      "Ġordered": 5701,
      "uhoh": 5702,
      "Ġcarriage": 5703,
      "Ġpolicy": 5704,
      "Ġfifth": 5705,
      "ĠGerald": 5706,
      "Three": 5707,
      "Ġstreets": 5708,
      "shall": 5709,
      "Ġtotally": 5710,
      "ĠRobin": 5711,
      "BC": 5712,
      "Got": 5713,
      "mes": 5714,
      "Ġcy": 5715,
      "alt": 5716,
      "Ġparticip": 5717,
      "Ġshoulder": 5718,
      "Ġvoices": 5719,
      "Ġbringing": 5720,
      "Ġpurple": 5721,
      "duced": 5722,
      "Ġutter": 5723,
      "Ġwore": 5724,
      "Ġfac": 5725,
      "ĠDen": 5726,
      "Ġrising": 5727,
      "Ġshock": 5728,
      "going": 5729,
      "ĠEdward": 5730,
      "ological": 5731,
      "Ġdegree": 5732,
      "ION": 5733,
      "oom": 5734,
      "ube": 5735,
      "Ġpages": 5736,
      "Ġheaven": 5737,
      "lear": 5738,
      "Ġnic": 5739,
      "riff": 5740,
      "ĠDi": 5741,
      "ĠFil": 5742,
      "Ġshoe": 5743,
      "ĠKent": 5744,
      "Ġprove": 5745,
      "Ġreported": 5746,
      "ollipop": 5747,
      "AVE": 5748,
      "IGHT": 5749,
      "Ġsite": 5750,
      "Ġgoodness": 5751,
      "places": 5752,
      "Ġneedta": 5753,
      "ansas": 5754,
      "Ġcontent": 5755,
      "ajesty": 5756,
      "ĠWilliams": 5757,
      "ĠAgnes": 5758,
      "rick": 5759,
      "wing": 5760,
      "orse": 5761,
      "Ġinvent": 5762,
      "Ġstates": 5763,
      "ĠPope": 5764,
      "ĠKore": 5765,
      "Ġaffe": 5766,
      "Ġdeveloped": 5767,
      "Ġcondition": 5768,
      "Ġrelationship": 5769,
      "Mama": 5770,
      "ential": 5771,
      "ĠDuring": 5772,
      "Ġsomewhat": 5773,
      "Ġconqu": 5774,
      "Ġrode": 5775,
      "Ġcups": 5776,
      "ĠGuy": 5777,
      "playing": 5778,
      "HERE": 5779,
      "Ġgradu": 5780,
      "Ġted": 5781,
      "ctors": 5782,
      "think": 5783,
      "opher": 5784,
      "Ġfamilies": 5785,
      "Ġevil": 5786,
      "Ġprotest": 5787,
      "Everything": 5788,
      "Ġsuccessful": 5789,
      "ĠSecretary": 5790,
      "tries": 5791,
      "Ġbod": 5792,
      "ena": 5793,
      "Ġpa": 5794,
      "Ġge": 5795,
      "rible": 5796,
      "Ġforced": 5797,
      "asty": 5798,
      "ucking": 5799,
      "Ġsteal": 5800,
      "Ġcomfortable": 5801,
      "ĠDemocratic": 5802,
      "Ġremembered": 5803,
      "Ġmedicine": 5804,
      "Something": 5805,
      "onel": 5806,
      "Ġcities": 5807,
      "Ġfence": 5808,
      "Ġintern": 5809,
      "Ġnarrow": 5810,
      "ĠBoston": 5811,
      "ola": 5812,
      "Ġships": 5813,
      "rences": 5814,
      "zza": 5815,
      "Ġchest": 5816,
      "Ġweekend": 5817,
      "ĠPrime": 5818,
      "Ġaddition": 5819,
      "ĠWalter": 5820,
      "Ġcit": 5821,
      "ications": 5822,
      "acher": 5823,
      "Ġreign": 5824,
      "ĠMount": 5825,
      "ĠMildred": 5826,
      "ĠCO": 5827,
      "thur": 5828,
      "Ġeverywhere": 5829,
      "Ġmagaz": 5830,
      "Ġcentral": 5831,
      "Ġgrandfather": 5832,
      "ĠProvince": 5833,
      "Qu": 5834,
      "Ġmud": 5835,
      "ĠTim": 5836,
      "ols": 5837,
      "Ġbecoming": 5838,
      "ĠAustria": 5839,
      "Ġapolog": 5840,
      "Ġscarcely": 5841,
      "Ġmicro": 5842,
      "zo": 5843,
      "Ġocean": 5844,
      "ĠSaint": 5845,
      "ĠBas": 5846,
      "estival": 5847,
      "Ġtroub": 5848,
      "Ġwondering": 5849,
      "Ġincluded": 5850,
      "Ġcompanies": 5851,
      "Ġreligion": 5852,
      "Ġrisk": 5853,
      "Career": 5854,
      "Char": 5855,
      "friend": 5856,
      "Ġpor": 5857,
      "Ġgift": 5858,
      "hant": 5859,
      "ishment": 5860,
      "Ġminister": 5861,
      "Ġ189": 5862,
      "Ġservices": 5863,
      "Ġcircum": 5864,
      "Ġfailed": 5865,
      "Perhaps": 5866,
      "bra": 5867,
      "Ġsilly": 5868,
      "ĠHot": 5869,
      "Ġserve": 5870,
      "Isn": 5871,
      "Ġforeign": 5872,
      "Ġlaws": 5873,
      "Ġglasses": 5874,
      "ĠAngeles": 5875,
      "Ġnervous": 5876,
      "Ġtourn": 5877,
      "Ġbunch": 5878,
      "Ġmale": 5879,
      "Ġdun": 5880,
      "atory": 5881,
      "Ġstyle": 5882,
      "ĠUk": 5883,
      "Ġsmoke": 5884,
      "Ġserving": 5885,
      "Ġenter": 5886,
      "ĠScrooge": 5887,
      "Ġholes": 5888,
      "daddy": 5889,
      "itz": 5890,
      "ĠCat": 5891,
      "Ġrice": 5892,
      "Ġstaying": 5893,
      "Ġplanning": 5894,
      "ĠMuslim": 5895,
      "Tw": 5896,
      "garet": 5897,
      "wan": 5898,
      "Ġbone": 5899,
      "Ġrelease": 5900,
      "ĠBund": 5901,
      "ĠFC": 5902,
      "ĠJake": 5903,
      "quar": 5904,
      "Ġ32": 5905,
      "Ġmatters": 5906,
      "ibility": 5907,
      "goes": 5908,
      "Bye": 5909,
      "ental": 5910,
      "Ġfork": 5911,
      "Ġliber": 5912,
      "ĠBan": 5913,
      "Ġroy": 5914,
      "Ġamb": 5915,
      "Ġsurround": 5916,
      "Ġveget": 5917,
      "Ġshadow": 5918,
      "Ha": 5919,
      "yr": 5920,
      "Ġwond": 5921,
      "Ġkm": 5922,
      "road": 5923,
      "ĠHel": 5924,
      "Ġmedal": 5925,
      "60": 5926,
      "law": 5927,
      "war": 5928,
      "Ġtour": 5929,
      "Ġsection": 5930,
      "Ġoranges": 5931,
      "Ġbarn": 5932,
      "Ġguns": 5933,
      "Ġprisoners": 5934,
      "Ġcandid": 5935,
      "\"?": 5936,
      "pir": 5937,
      "six": 5938,
      "Ġ..": 5939,
      "open": 5940,
      "Ġsplend": 5941,
      "Ġthroughout": 5942,
      "ailed": 5943,
      "Ġ188": 5944,
      "ALL": 5945,
      "Ġgrandmother": 5946,
      "Ġtarget": 5947,
      "Mac": 5948,
      "Ġaunt": 5949,
      "Ġheat": 5950,
      "Ġreve": 5951,
      "ĠMore": 5952,
      "ĠMama": 5953,
      "ĠAEW": 5954,
      "ĠWay": 5955,
      "Ġadop": 5956,
      "Ġhearts": 5957,
      "Ġplanet": 5958,
      "Ġedge": 5959,
      "Ġadvice": 5960,
      "Ġstrike": 5961,
      "Ġperforman": 5962,
      "Ġpatient": 5963,
      "Ġamazing": 5964,
      "esome": 5965,
      "Ġgenerally": 5966,
      "Ġissue": 5967,
      "Ġshooting": 5968,
      "Since": 5969,
      "Ġmaid": 5970,
      "Ġinit": 5971,
      "ĠSee": 5972,
      "ĠLook": 5973,
      "ĠUp": 5974,
      "udd": 5975,
      "Ġsorts": 5976,
      "Ġtraffic": 5977,
      "ĠGovernor": 5978,
      "writer": 5979,
      "ĠAcademy": 5980,
      "Ġopinion": 5981,
      "nan": 5982,
      "itar": 5983,
      "oria": 5984,
      "ima": 5985,
      "acon": 5986,
      "ĠPan": 5987,
      "ĠFar": 5988,
      "icking": 5989,
      "Ġflo": 5990,
      "Ġmountains": 5991,
      "Ġcopy": 5992,
      "Ġteddy": 5993,
      "long": 5994,
      "Ġfaster": 5995,
      "amma": 5996,
      "Ġune": 5997,
      "ĠPict": 5998,
      "Ġdeck": 5999,
      "Ġsurely": 6000,
      "Ġdesk": 6001,
      "clears": 6002,
      "engers": 6003,
      "Ġcookie": 6004,
      "Ġsalt": 6005,
      "Ġsalad": 6006,
      "Ġvalue": 6007,
      "Con": 6008,
      "ault": 6009,
      "sounds": 6010,
      "Ġachie": 6011,
      "orough": 6012,
      "ĠHi": 6013,
      "ĠPolly": 6014,
      "Ġplums": 6015,
      "Ġhearing": 6016,
      "blue": 6017,
      "Ġadminist": 6018,
      "Ġappearance": 6019,
      "TH": 6020,
      "cr": 6021,
      "Ġmor": 6022,
      "ĠMY": 6023,
      "ĠMill": 6024,
      "ĠAbout": 6025,
      "Ġriding": 6026,
      "ability": 6027,
      "Ġexcellent": 6028,
      "Ġblame": 6029,
      "Ġpreschool": 6030,
      "Ġstru": 6031,
      "Ġkidding": 6032,
      "Ġ1980": 6033,
      "Ġsnake": 6034,
      "FF": 6035,
      "Hold": 6036,
      "Urs": 6037,
      "Ġwinning": 6038,
      "Ġpred": 6039,
      "astern": 6040,
      "cho": 6041,
      "Ġancient": 6042,
      "Ġpartner": 6043,
      "Ġthoughts": 6044,
      "Ġactive": 6045,
      "Ġleague": 6046,
      "Ġpolic": 6047,
      "Ġrespond": 6048,
      "Christ": 6049,
      "Ġcurrently": 6050,
      "Ġcritic": 6051,
      "case": 6052,
      "mission": 6053,
      "ĠHI": 6054,
      "isions": 6055,
      "Ġstir": 6056,
      "Ġdoors": 6057,
      "ulous": 6058,
      "ĠJac": 6059,
      "Ġoblig": 6060,
      "Ġorganization": 6061,
      "ĠGovernment": 6062,
      "OH": 6063,
      "Rem": 6064,
      "Ġbug": 6065,
      "Ġcards": 6066,
      "ani": 6067,
      "essel": 6068,
      "leg": 6069,
      "Ġnest": 6070,
      "Ġlies": 6071,
      "ĠJenn": 6072,
      "Ġuniversity": 6073,
      "Ġdrawn": 6074,
      "Ġweapons": 6075,
      "Fran": 6076,
      "chief": 6077,
      "ĠStar": 6078,
      "ĠMarie": 6079,
      "Ġentertain": 6080,
      "Ġelephants": 6081,
      "vest": 6082,
      "ĠRay": 6083,
      "Ġcreature": 6084,
      "Ġhasta": 6085,
      "ILL": 6086,
      "NOW": 6087,
      "pull": 6088,
      "Ġcourage": 6089,
      "Ġpears": 6090,
      "Ġhm": 6091,
      "Ġhiding": 6092,
      "Ġnation": 6093,
      "ĠJesus": 6094,
      "Ġpros": 6095,
      "Ġcloud": 6096,
      "Ġscrew": 6097,
      "Ġresc": 6098,
      "Ġ1995": 6099,
      "Before": 6100,
      "Ġkingdom": 6101,
      "black": 6102,
      "ĠAlexander": 6103,
      "Ġpillow": 6104,
      "Ġtouched": 6105,
      "22": 6106,
      "bled": 6107,
      "ata": 6108,
      "ĠIll": 6109,
      "ĠShi": 6110,
      "ĠMost": 6111,
      "ĠCons": 6112,
      "Ġshell": 6113,
      "Ġjun": 6114,
      "ĠRom": 6115,
      "Ġrob": 6116,
      "Ġfriendly": 6117,
      "ounce": 6118,
      "Ġplanned": 6119,
      "ÃŃt": 6120,
      "Ġunclear": 6121,
      "Ġproperty": 6122,
      "Ġindustry": 6123,
      "Ġwagon": 6124,
      "ĠMerle": 6125,
      "Ġopposite": 6126,
      "40": 6127,
      "Ġyard": 6128,
      "ĠArab": 6129,
      "Ġgoal": 6130,
      "Ġhadta": 6131,
      "Ġarran": 6132,
      "Ġbegins": 6133,
      "scream": 6134,
      "Ġmispronounced": 6135,
      "Ġdisappeared": 6136,
      "Ġmixed": 6137,
      "Actually": 6138,
      "ni": 6139,
      "rot": 6140,
      "erable": 6141,
      "Ġbub": 6142,
      "isher": 6143,
      "ĠSing": 6144,
      "stead": 6145,
      "Ġrug": 6146,
      "ĠGers": 6147,
      "odes": 6148,
      "ĠVirgin": 6149,
      "Ġ1960": 6150,
      "Ġdrove": 6151,
      "Ġpotatoes": 6152,
      "Ġclimb": 6153,
      "Ġclimate": 6154,
      "Ġmirror": 6155,
      "Ġarrested": 6156,
      "ĠMaine": 6157,
      "Ġsomehow": 6158,
      "Ġexerc": 6159,
      "ga": 6160,
      "Ġcad": 6161,
      "Ġforgive": 6162,
      "Ġneg": 6163,
      "Ġalpha": 6164,
      "Ġvir": 6165,
      "Ġsilent": 6166,
      "ension": 6167,
      "ĠJohnson": 6168,
      "Ġbuildings": 6169,
      "reedom": 6170,
      "Ġdim": 6171,
      "Ġthin": 6172,
      "ĠEven": 6173,
      "Ġvessel": 6174,
      "Ġarrange": 6175,
      "Ġgrace": 6176,
      "ĠStan": 6177,
      "Ġpresence": 6178,
      "Ġuseful": 6179,
      "ĠBecky": 6180,
      "Ġlegal": 6181,
      "cientists": 6182,
      "ym": 6183,
      "rend": 6184,
      "Ġsink": 6185,
      "irlf": 6186,
      "ĠBu": 6187,
      "ĠWall": 6188,
      "ĠDou": 6189,
      "ĠRy": 6190,
      "Ġrushed": 6191,
      "ARD": 6192,
      "Ġbiggest": 6193,
      "Ġsmiling": 6194,
      "Ġ2002": 6195,
      "Ġ1998": 6196,
      "Those": 6197,
      "Ġspecific": 6198,
      "moves": 6199,
      "Ġpressure": 6200,
      "Ġbunny": 6201,
      "Ġpale": 6202,
      "oses": 6203,
      "aren": 6204,
      "Ġowner": 6205,
      "Ġfairly": 6206,
      "Ġdetect": 6207,
      "Ġweapon": 6208,
      "{\\": 6209,
      "aring": 6210,
      "ĠPers": 6211,
      "ĠWE": 6212,
      "ĠLI": 6213,
      "Ġcomment": 6214,
      "care": 6215,
      "Ġadvert": 6216,
      "Ġhurried": 6217,
      "ĠĠĠĠĠĠĠĠĠĠĠĠĠĠĠĠĠĠĠĠĠĠĠĠ": 6218,
      "Ġmedia": 6219,
      "Ġservant": 6220,
      "Ġburning": 6221,
      "Lea": 6222,
      "ua": 6223,
      "uries": 6224,
      "za": 6225,
      "Ġchat": 6226,
      "ancial": 6227,
      "ĠTwo": 6228,
      "Ġspill": 6229,
      "Ġdolls": 6230,
      "onstr": 6231,
      "Ġgrey": 6232,
      "Ġrank": 6233,
      "Ġshoulders": 6234,
      "Ġscore": 6235,
      "Ġ1994": 6236,
      "Ġescap": 6237,
      "irlfriend": 6238,
      "rant": 6239,
      "Ġpra": 6240,
      "Ġnative": 6241,
      "artment": 6242,
      "Ġrare": 6243,
      "Ġaccess": 6244,
      "Ġ1999": 6245,
      "ropol": 6246,
      "ĠDonald": 6247,
      "Ġnorthern": 6248,
      "Ġtear": 6249,
      "Ġborder": 6250,
      "Ġupside": 6251,
      "uments": 6252,
      "Ġrout": 6253,
      "osen": 6254,
      "Ġpregn": 6255,
      "Ġcrim": 6256,
      "Ġrealize": 6257,
      "ĠCarol": 6258,
      "Ġdarkness": 6259,
      "Ġdestroyed": 6260,
      "Sc": 6261,
      "Ġfier": 6262,
      "aron": 6263,
      "Ġnotes": 6264,
      "Ġsheep": 6265,
      "ĠWent": 6266,
      "ĠFI": 6267,
      "Ġcontribut": 6268,
      "Ġboats": 6269,
      "Ġ1996": 6270,
      "Ġinvited": 6271,
      "Ġevident": 6272,
      "Ġexcitement": 6273,
      "Ġhello": 6274,
      "achel": 6275,
      "Ġrecording": 6276,
      "Ġtreated": 6277,
      "Ġveh": 6278,
      "Ġproduction": 6279,
      "Ġtradition": 6280,
      "Ġlibrary": 6281,
      "Cause": 6282,
      "sa": 6283,
      "Ġpsych": 6284,
      "ette": 6285,
      "acha": 6286,
      "Ġreasons": 6287,
      "ĠTor": 6288,
      "ĠBig": 6289,
      "...?": 6290,
      "Ġagre": 6291,
      "Ġchap": 6292,
      "Ġburied": 6293,
      "Ġrelated": 6294,
      "ĠDoctor": 6295,
      "ĠTurk": 6296,
      "About": 6297,
      "ND": 6298,
      "Tilda": 6299,
      "Ġtun": 6300,
      "Ġwine": 6301,
      "Ġlone": 6302,
      "icans": 6303,
      "Ġstaff": 6304,
      "Ġcloth": 6305,
      "ĠChris": 6306,
      "Ġends": 6307,
      "Ġdescend": 6308,
      "Ġpassing": 6309,
      "ĠAtl": 6310,
      "Ġtransport": 6311,
      "Ġeffort": 6312,
      "ĠLatin": 6313,
      "utenant": 6314,
      "Ġtournament": 6315,
      "Ġroyal": 6316,
      "ugh": 6317,
      "ware": 6318,
      "inc": 6319,
      "Ġcott": 6320,
      "Ġfired": 6321,
      "Ġknight": 6322,
      "Ġanti": 6323,
      "dere": 6324,
      "Ġtowns": 6325,
      "Ġmainly": 6326,
      "Ġsouthwestern": 6327,
      "Call": 6328,
      "fire": 6329,
      "Ġtie": 6330,
      "Ġtip": 6331,
      "Ġfan": 6332,
      "Ġpony": 6333,
      "Ġlosing": 6334,
      "ĠMax": 6335,
      "ĠTHIS": 6336,
      "ĠCooper": 6337,
      "angar": 6338,
      "Ġsetting": 6339,
      "ĠArgent": 6340,
      "Ġcats": 6341,
      "Ġthousands": 6342,
      "Alright": 6343,
      "ITH": 6344,
      "Ġloudly": 6345,
      "Ġvictory": 6346,
      "New": 6347,
      "phe": 6348,
      "Ġaver": 6349,
      "Ġlollipop": 6350,
      "ĠIrish": 6351,
      "ĠSea": 6352,
      "uman": 6353,
      "ague": 6354,
      "angle": 6355,
      "Ġdrug": 6356,
      "Ġhandsome": 6357,
      "Ġfairy": 6358,
      "Ġexpression": 6359,
      "Ġprofessor": 6360,
      "ĠCentral": 6361,
      "Ġapartment": 6362,
      "ĠPortug": 6363,
      "ĠLabour": 6364,
      "During": 6365,
      "unts": 6366,
      "gel": 6367,
      "bridge": 6368,
      "Ġintellig": 6369,
      "Ġdivor": 6370,
      "Ġknocked": 6371,
      "whispered": 6372,
      "ĠAustralian": 6373,
      "Ġdelicious": 6374,
      "Ġdefinitely": 6375,
      "nology": 6376,
      "Cos": 6377,
      "Say": 6378,
      "Ġwra": 6379,
      "Ġsang": 6380,
      "anut": 6381,
      "still": 6382,
      "urance": 6383,
      "ateg": 6384,
      "irls": 6385,
      "angers": 6386,
      "Ġremoved": 6387,
      "Ġslide": 6388,
      "Ġ1970": 6389,
      "ĠEmperor": 6390,
      "ĠRecords": 6391,
      "gi": 6392,
      "icket": 6393,
      "Ġafford": 6394,
      "pton": 6395,
      "Ġbreaking": 6396,
      "Ġballoon": 6397,
      "Ġcookies": 6398,
      "ĠFlorida": 6399,
      "ipped": 6400,
      "Ġtooth": 6401,
      "ĠSqu": 6402,
      "ĠBest": 6403,
      "eping": 6404,
      "Ġtruly": 6405,
      "Ġlistened": 6406,
      "Ġpriest": 6407,
      "ĠDisney": 6408,
      "Ġphilos": 6409,
      "NO": 6410,
      "ĠâĢĻ": 6411,
      "ĠSar": 6412,
      "olar": 6413,
      "Ġcompos": 6414,
      "Ġacting": 6415,
      "ĠMargaret": 6416,
      "Ġclever": 6417,
      "ropri": 6418,
      "Ġenjoyed": 6419,
      "Ġcitiz": 6420,
      "Put": 6421,
      "ano": 6422,
      "Ġpity": 6423,
      "Ġloose": 6424,
      "athan": 6425,
      "....": 6426,
      "ĠAct": 6427,
      "weet": 6428,
      "Ġpoison": 6429,
      "onsense": 6430,
      "Ġ1992": 6431,
      "Ġlarger": 6432,
      "Ġpresently": 6433,
      "Ġrecorded": 6434,
      "Ġexchan": 6435,
      "Ġlessons": 6436,
      "Ġpupp": 6437,
      "ĠColumb": 6438,
      "Ġwedding": 6439,
      "Ġbodies": 6440,
      "Ġcircumst": 6441,
      "OL": 6442,
      "cup": 6443,
      "sl": 6444,
      "tt": 6445,
      "iture": 6446,
      "Ġreview": 6447,
      "istry": 6448,
      "Ġprevious": 6449,
      "Ġunderstood": 6450,
      "ANG": 6451,
      "ĠRev": 6452,
      "Ġpositive": 6453,
      "ĠBarb": 6454,
      "Ġcreate": 6455,
      "ĠComp": 6456,
      "Ġwitness": 6457,
      "wers": 6458,
      "ĠBa": 6459,
      "Ġsuffe": 6460,
      "Ġprefer": 6461,
      "Ġcray": 6462,
      "ocr": 6463,
      "Ġlearning": 6464,
      "Ġexpress": 6465,
      "Ġdirectly": 6466,
      "Ġexciting": 6467,
      "Ġsettlement": 6468,
      "EP": 6469,
      "Fine": 6470,
      "Huh": 6471,
      "mine": 6472,
      "heast": 6473,
      "icide": 6474,
      "ulk": 6475,
      "ulty": 6476,
      "essert": 6477,
      "ĠEll": 6478,
      "ĠEst": 6479,
      "Ġconcent": 6480,
      "ĠVer": 6481,
      "ĠYear": 6482,
      "Ġadult": 6483,
      "Ġhoping": 6484,
      "Ġfields": 6485,
      "'...": 6486,
      "25": 6487,
      "Nice": 6488,
      "eks": 6489,
      "gain": 6490,
      "ipe": 6491,
      "Ġlake": 6492,
      "ĠMavis": 6493,
      "ĠThanks": 6494,
      "ĠBook": 6495,
      "ilty": 6496,
      "ĠRon": 6497,
      "Ġprogress": 6498,
      "Ġkilling": 6499,
      "Ġbesides": 6500,
      "iraffe": 6501,
      "Ġsplendid": 6502,
      "angaroo": 6503,
      "cles": 6504,
      "ras": 6505,
      "Ġast": 6506,
      "ora": 6507,
      "ett": 6508,
      "ĠHome": 6509,
      "Ġshook": 6510,
      "Ġsports": 6511,
      "Ġvent": 6512,
      "Ġclown": 6513,
      "Ġthrown": 6514,
      "ĠAndrew": 6515,
      "Once": 6516,
      "Ġcreatures": 6517,
      "ervation": 6518,
      "ĠPlay": 6519,
      "Ġfortune": 6520,
      "stein": 6521,
      "!âĢĻ": 6522,
      "21": 6523,
      "ingu": 6524,
      "ĠHave": 6525,
      "ending": 6526,
      "Ġshame": 6527,
      "ĠBecause": 6528,
      "Ġrefused": 6529,
      "Ġgovernor": 6530,
      "iamond": 6531,
      "Ġteaching": 6532,
      "Everyone": 6533,
      "Ġindependent": 6534,
      "Brian": 6535,
      "UCK": 6536,
      "iri": 6537,
      "isa": 6538,
      "Ġpause": 6539,
      "elcome": 6540,
      "Ġchain": 6541,
      "ungle": 6542,
      "Ġfinds": 6543,
      "Ġbadly": 6544,
      "Ġlocation": 6545,
      "Ġrequest": 6546,
      "stitute": 6547,
      "Ġbuddy": 6548,
      "ĠIra": 6549,
      "Ġbee": 6550,
      "ĠFair": 6551,
      "Ġchosen": 6552,
      "Ġseriously": 6553,
      "Ġresponsible": 6554,
      "RA": 6555,
      "sound": 6556,
      "Ġsons": 6557,
      "oned": 6558,
      "Ġyo": 6559,
      "Ġpants": 6560,
      "ĠRel": 6561,
      "istic": 6562,
      "ĠLike": 6563,
      "Ġpickle": 6564,
      "ointment": 6565,
      "ĠSocial": 6566,
      "Ġsymp": 6567,
      "Ġincludes": 6568,
      "Ġchecked": 6569,
      "Ġpenny": 6570,
      "iliar": 6571,
      "Ġpalace": 6572,
      "avaria": 6573,
      "Ooh": 6574,
      "Sec": 6575,
      "Ġtough": 6576,
      "ĠBay": 6577,
      "ĠBavaria": 6578,
      "ĠNaz": 6579,
      "Ġprepar": 6580,
      "ancing": 6581,
      "Ġmethod": 6582,
      "Ġsnap": 6583,
      "Ġmaterial": 6584,
      "Ġdistributed": 6585,
      "Com": 6586,
      "IA": 6587,
      "gers": 6588,
      "mouth": 6589,
      "iner": 6590,
      "Ġbuck": 6591,
      "Ġpil": 6592,
      "acle": 6593,
      "ĠHill": 6594,
      "about": 6595,
      "emic": 6596,
      "ĠJon": 6597,
      "Ġscreen": 6598,
      "Ġchop": 6599,
      "Ġcontr": 6600,
      "Ġresults": 6601,
      "Ġpicking": 6602,
      "Ġmission": 6603,
      "UNC": 6604,
      "Ġadvant": 6605,
      "ĠRamsey": 6606,
      "ĠWentworth": 6607,
      "Bet": 6608,
      "MAN": 6609,
      "Ġtim": 6610,
      "Ġgirlfriend": 6611,
      "ĠSur": 6612,
      "stone": 6613,
      "bey": 6614,
      "formed": 6615,
      "anches": 6616,
      "ception": 6617,
      "Ġtransfer": 6618,
      "Ġprovince": 6619,
      "Ġnewspaper": 6620,
      "bow": 6621,
      "Ġaim": 6622,
      "Ġbicycle": 6623,
      "ĠMummy": 6624,
      "ĠVerm": 6625,
      "ubs": 6626,
      "Ġchampion": 6627,
      "ocks": 6628,
      "Ġdesert": 6629,
      "Ġwatermelon": 6630,
      "Ġconditions": 6631,
      "Ġentirely": 6632,
      "talking": 6633,
      "cries": 6634,
      "fle": 6635,
      "Ġ:": 6636,
      "Ġtal": 6637,
      "hamed": 6638,
      "Ġmort": 6639,
      "Ġpit": 6640,
      "Ġhomes": 6641,
      "Ġbeer": 6642,
      "ĠAh": 6643,
      "ĠAri": 6644,
      "apt": 6645,
      "ĠKar": 6646,
      "Ġtroops": 6647,
      "Ġfeather": 6648,
      "Ġapples": 6649,
      "Ġreceive": 6650,
      "Ġinnocent": 6651,
      "Most": 6652,
      "name": 6653,
      "Ġmap": 6654,
      "Ġdessert": 6655,
      "Ġrat": 6656,
      "Ġterrit": 6657,
      "Ġ1991": 6658,
      "Ġpaying": 6659,
      "Ġjobs": 6660,
      "ĠGeorg": 6661,
      "Ġdefeated": 6662,
      "Ġpipe": 6663,
      "Ġcredit": 6664,
      ")}": 6665,
      "die": 6666,
      "sk": 6667,
      "referent": 6668,
      "Ġbon": 6669,
      "Ġbold": 6670,
      "oos": 6671,
      "ĠBea": 6672,
      "thel": 6673,
      "Whatever": 6674,
      "ĠVict": 6675,
      "Ġstands": 6676,
      "ĠAsian": 6677,
      "ĠScar": 6678,
      "Ġdelay": 6679,
      "Ġrange": 6680,
      "ĠCharlie": 6681,
      "Ġselling": 6682,
      "ĠSecond": 6683,
      "Ġdetermined": 6684,
      "Ġwestern": 6685,
      "Ġcode": 6686,
      "ĠMajesty": 6687,
      "sters": 6688,
      "Ġjacket": 6689,
      "ĠFort": 6690,
      "ĠEv": 6691,
      "Ġrecently": 6692,
      "ERS": 6693,
      "Ġraise": 6694,
      "Ġmeters": 6695,
      "Ġpainted": 6696,
      "umbling": 6697,
      "Ġcooking": 6698,
      "Ġdocument": 6699,
      "American": 6700,
      "dess": 6701,
      "green": 6702,
      "ios": 6703,
      "vy": 6704,
      "erman": 6705,
      "Ġdozen": 6706,
      "ĠBull": 6707,
      "ĠNOT": 6708,
      "ĠLin": 6709,
      "ĠLake": 6710,
      "ĠOut": 6711,
      "Ġappointed": 6712,
      "ĠArt": 6713,
      "Ġcutting": 6714,
      "Ġwaves": 6715,
      "Ġkissed": 6716,
      "OME": 6717,
      "Ġdescribed": 6718,
      "ĠAuntie": 6719,
      "Ġslept": 6720,
      ".--": 6721,
      "En": 6722,
      "Fl": 6723,
      "Other": 6724,
      "iest": 6725,
      "Ġaid": 6726,
      "Ġmerc": 6727,
      "Ġcrew": 6728,
      "ann": 6729,
      "tery": 6730,
      "ulations": 6731,
      "ĠGet": 6732,
      "new": 6733,
      "were": 6734,
      "Ġquit": 6735,
      "ĠStud": 6736,
      "Ġguilty": 6737,
      "Ġcloset": 6738,
      "Ġsuggested": 6739,
      "Ġcollection": 6740,
      "Ġextremely": 6741,
      "Ġlonely": 6742,
      "Ġsuffered": 6743,
      "Tom": 6744,
      "och": 6745,
      "Ġwid": 6746,
      "Ġrent": 6747,
      "Ġrush": 6748,
      "ĠNick": 6749,
      "igned": 6750,
      "Ġdesper": 6751,
      "Ġdrama": 6752,
      "ĠArch": 6753,
      "Ġtransl": 6754,
      "Ġcharacters": 6755,
      "ĠRodger": 6756,
      "Ġpure": 6757,
      "Ġpiano": 6758,
      "athered": 6759,
      "aly": 6760,
      "ĠHea": 6761,
      "ĠEaster": 6762,
      "ĠOff": 6763,
      "Ġresist": 6764,
      "Ġissues": 6765,
      "Ġlocked": 6766,
      "Ġsuspic": 6767,
      "Ġappreciate": 6768,
      "ĠVermont": 6769,
      "23": 6770,
      "Over": 6771,
      "Whin": 6772,
      "Ã¦": 6773,
      "Ġwha": 6774,
      "imp": 6775,
      "ĠSpr": 6776,
      "stra": 6777,
      "Ġdose": 6778,
      "Ġshel": 6779,
      "Ġsausage": 6780,
      "ĠLove": 6781,
      "Ġbranches": 6782,
      "issa": 6783,
      "Ġeaten": 6784,
      "Ġcrash": 6785,
      "Ġ186": 6786,
      "Ġstudent": 6787,
      "Ġ1981": 6788,
      "ONE": 6789,
      "Ġsignific": 6790,
      "Ġdivided": 6791,
      "Ġintrodu": 6792,
      "Michael": 6793,
      "OP": 6794,
      "Pr": 6795,
      "Ġsorrow": 6796,
      "Ġdump": 6797,
      "Ġbend": 6798,
      "ĠShar": 6799,
      "elia": 6800,
      "ĠOli": 6801,
      "ĠVo": 6802,
      "Ġguitar": 6803,
      "Ġbitter": 6804,
      "Ġ60": 6805,
      "ĠProfess": 6806,
      "Ġtender": 6807,
      "ĠSusan": 6808,
      "Ġperformance": 6809,
      "Ursula": 6810,
      "LA": 6811,
      "RY": 6812,
      "Ġsigh": 6813,
      "Ġbid": 6814,
      "Ġhorn": 6815,
      "Ġbeast": 6816,
      "ĠRE": 6817,
      "ĠRight": 6818,
      "Ġconv": 6819,
      "Ġconference": 6820,
      "Ġclip": 6821,
      "ĠVan": 6822,
      "Ġuns": 6823,
      "Ġmighty": 6824,
      "whoops": 6825,
      "ĠHarry": 6826,
      "Ġhorsie": 6827,
      "Ġshouted": 6828,
      "Ġhidden": 6829,
      "KE": 6830,
      "Ġdust": 6831,
      "ented": 6832,
      "Ġaside": 6833,
      "ĠBir": 6834,
      "Ġsees": 6835,
      "ateful": 6836,
      "Ġroles": 6837,
      "ĠStep": 6838,
      "Ġswear": 6839,
      "Ġairport": 6840,
      "Ġpulling": 6841,
      "Ġavoid": 6842,
      "Ġdesigned": 6843,
      "break": 6844,
      "Ġrubber": 6845,
      "Ġ0": 6846,
      "Ġtask": 6847,
      "Ġpile": 6848,
      "Ġinsp": 6849,
      "amily": 6850,
      "Ġotherwise": 6851,
      "Ġgrant": 6852,
      "Ġglance": 6853,
      "Ġhurts": 6854,
      "Ġreports": 6855,
      "Ġcereal": 6856,
      "Ġincrease": 6857,
      "MT": 6858,
      "While": 6859,
      "dear": 6860,
      "Ġcone": 6861,
      "umn": 6862,
      "ĠNic": 6863,
      "emies": 6864,
      "whines": 6865,
      "Ġadmit": 6866,
      "Ġfellows": 6867,
      "ĠDepartment": 6868,
      "Ġmagazine": 6869,
      "Whinney": 6870,
      "coh": 6871,
      "nuhhuh": 6872,
      "Ġtied": 6873,
      "noise": 6874,
      "amm": 6875,
      "Ġplates": 6876,
      "Ġbranch": 6877,
      "ootball": 6878,
      "Ġ1993": 6879,
      "Ġhorrible": 6880,
      "Ġpossess": 6881,
      "Ġprize": 6882,
      "Ġhonour": 6883,
      "Ġsales": 6884,
      "Ġformula": 6885,
      "Ġprovide": 6886,
      "Ġauthority": 6887,
      "ĠâĢĶ": 6888,
      "Ġpump": 6889,
      "Ġwealth": 6890,
      "Ġassoci": 6891,
      "ĠWhile": 6892,
      "Ġrac": 6893,
      "eps": 6894,
      "Ġeats": 6895,
      "Ġfourteen": 6896,
      "anche": 6897,
      "Ġdistur": 6898,
      "Ġincident": 6899,
      "Ġattacked": 6900,
      "Ġcrossed": 6901,
      "Ġprogramme": 6902,
      "Ġproducer": 6903,
      "Ġaffair": 6904,
      "Ġscratch": 6905,
      "Ġcounter": 6906,
      "Ġfalse": 6907,
      "orne": 6908,
      "ĠSE": 6909,
      "ĠCle": 6910,
      "ĠHAVE": 6911,
      "chair": 6912,
      "ĠZe": 6913,
      "Ġ1987": 6914,
      "comune": 6915,
      "ĠRepublican": 6916,
      "Ġseparate": 6917,
      "write": 6918,
      "More": 6919,
      "bar": 6920,
      "anny": 6921,
      "esota": 6922,
      "ali": 6923,
      "ĠDiv": 6924,
      "Ġdey": 6925,
      "ĠLaura": 6926,
      "rennan": 6927,
      "Ġours": 6928,
      "Ġbecomes": 6929,
      "Ġsurface": 6930,
      "Ġ1997": 6931,
      "umbled": 6932,
      "Ġfailure": 6933,
      "Lot": 6934,
      "whe": 6935,
      "Ġbones": 6936,
      "Ġgather": 6937,
      "owder": 6938,
      "ĠTre": 6939,
      "ĠRad": 6940,
      "oles": 6941,
      "Ġplus": 6942,
      "Ġspare": 6943,
      "Ġvalley": 6944,
      "Ġthrone": 6945,
      "eaking": 6946,
      "Ġ187": 6947,
      "Ġinvol": 6948,
      "ĠJohnny": 6949,
      "Ġbeneath": 6950,
      "ĠSenate": 6951,
      "Ġstranger": 6952,
      "Father": 6953,
      "IE": 6954,
      "Ġfart": 6955,
      "Ġgay": 6956,
      "icago": 6957,
      "rib": 6958,
      "sec": 6959,
      "ĠAT": 6960,
      "raine": 6961,
      "ĠRog": 6962,
      "ĠNob": 6963,
      "Ġconce": 6964,
      "Ġoldest": 6965,
      "Ġchoo": 6966,
      "ggy": 6967,
      "leted": 6968,
      "Ġfinancial": 6969,
      "Ġrestaur": 6970,
      "Ġsymb": 6971,
      "197": 6972,
      "Ġconfl": 6973,
      "Ġproposed": 6974,
      "Ġfolks": 6975,
      "ĠPrincess": 6976,
      "Dear": 6977,
      "David": 6978,
      "great": 6979,
      "giving": 6980,
      "wide": 6981,
      "works": 6982,
      "Ġfant": 6983,
      "Ġlic": 6984,
      "ĠSince": 6985,
      "ams": 6986,
      "ĠApp": 6987,
      "Ġspite": 6988,
      "ĠKansas": 6989,
      "ESS": 6990,
      "OUT": 6991,
      "Ġtreasure": 6992,
      "Someone": 6993,
      "Ġchase": 6994,
      "Ġremains": 6995,
      "didn": 6996,
      "Ġanswers": 6997,
      "Ġexplained": 6998,
      "Ġactivist": 6999,
      "ĠMartin": 7000,
      "ĠJersey": 7001,
      "Ġcanton": 7002,
      "Ġnearer": 7003,
      "ĠMinnesota": 7004,
      "Bill": 7005,
      "GFA": 7006,
      "pick": 7007,
      "Ġforms": 7008,
      "ĠSpe": 7009,
      "Ġstove": 7010,
      "rol": 7011,
      "ĠAthen": 7012,
      "Ġseats": 7013,
      "Ġconsequ": 7014,
      "Ġclay": 7015,
      "Ġcovers": 7016,
      "Ġfamiliar": 7017,
      "Ġobtain": 7018,
      "Ġ1988": 7019,
      "bbed": 7020,
      "Ġtreatment": 7021,
      "Ġoriginally": 7022,
      "Ġbelongs": 7023,
      "Ġburned": 7024,
      "Ġpackage": 7025,
      "pensive": 7026,
      "Ġcottage": 7027,
      "pitched": 7028,
      "ĠÂ": 7029,
      "Ġgained": 7030,
      "Ġgathered": 7031,
      "Ġnail": 7032,
      "ĠHy": 7033,
      "ĠWild": 7034,
      "Ġdrugs": 7035,
      "ika": 7036,
      "Ġdreadful": 7037,
      "Ġcomedy": 7038,
      "Ġobliged": 7039,
      "mi": 7040,
      "lyn": 7041,
      "ĠTy": 7042,
      "ĠWas": 7043,
      "ela": 7044,
      "Ġparties": 7045,
      "Ġmoments": 7046,
      "ĠArthur": 7047,
      "Ġstepped": 7048,
      "Ġ1950": 7049,
      "inois": 7050,
      "Ġcompanion": 7051,
      "Ġperformed": 7052,
      "Ġdestroy": 7053,
      "ĠHungry": 7054,
      "Ġchampionship": 7055,
      "Ġstructure": 7056,
      "_.": 7057,
      "ko": 7058,
      "esides": 7059,
      "Ġhabit": 7060,
      "icate": 7061,
      "Ġbeans": 7062,
      "ĠTer": 7063,
      "raham": 7064,
      "geon": 7065,
      "ĠGal": 7066,
      "Ġunp": 7067,
      "Ġcheeks": 7068,
      "Ġattached": 7069,
      "uclear": 7070,
      "Ġhated": 7071,
      "Ġ1972": 7072,
      "Anyway": 7073,
      "Ġslightly": 7074,
      "Ġchemical": 7075,
      "Ġalphabet": 7076,
      "comm": 7077,
      "Ġdough": 7078,
      "owing": 7079,
      "Ġrefe": 7080,
      "urd": 7081,
      "Ġsevere": 7082,
      "Ġracing": 7083,
      "ĠJones": 7084,
      "Ġrooms": 7085,
      "Ġpassengers": 7086,
      "Still": 7087,
      "198": 7088,
      "Ġreplaced": 7089,
      "Ġmurdered": 7090,
      "Ġsafely": 7091,
      "ĠCastle": 7092,
      "Ġdunno": 7093,
      "Ġaverage": 7094,
      "jamin": 7095,
      "lings": 7096,
      "Ġfaint": 7097,
      "Ġlack": 7098,
      "Ġheav": 7099,
      "ĠSto": 7100,
      "ĠBilly": 7101,
      "ĠHon": 7102,
      "ĠWrest": 7103,
      "ĠLand": 7104,
      "ĠLife": 7105,
      "bef": 7106,
      "Nobody": 7107,
      "Ġshake": 7108,
      "Ġhelps": 7109,
      "Ġrelief": 7110,
      "Ġstudies": 7111,
      "Ġ1989": 7112,
      "iverse": 7113,
      "Ġinfluence": 7114,
      "Har": 7115,
      "MB": 7116,
      "Ġzzz": 7117,
      "Ġlink": 7118,
      "usted": 7119,
      "ĠGe": 7120,
      "igan": 7121,
      "Ġvain": 7122,
      "Ġjustice": 7123,
      "ĠOver": 7124,
      "Ġgotten": 7125,
      "together": 7126,
      "Ġproved": 7127,
      "Ġqueer": 7128,
      "Ġchallen": 7129,
      "ĠChild": 7130,
      "Ġswall": 7131,
      "Ġcupcake": 7132,
      "Didn": 7133,
      "Ġfeatures": 7134,
      "count": 7135,
      "Ã¤": 7136,
      "inter": 7137,
      "Ġwicked": 7138,
      "erves": 7139,
      "Ġmate": 7140,
      "orious": 7141,
      "Ġmeasure": 7142,
      "umes": 7143,
      "akin": 7144,
      "ART": 7145,
      "issors": 7146,
      "Ġguests": 7147,
      "Ġdism": 7148,
      "Ġchose": 7149,
      "Ġreality": 7150,
      "Ġaccomp": 7151,
      "Think": 7152,
      "Ġrepresented": 7153,
      "Ġwashers": 7154,
      "ĠIllinois": 7155,
      "cream": 7156,
      "uties": 7157,
      "Ġreck": 7158,
      "ĠTam": 7159,
      "eable": 7160,
      "Ġcommer": 7161,
      "Ġdisplay": 7162,
      "Ġpride": 7163,
      "Ġproof": 7164,
      "Ġhappiness": 7165,
      "iley": 7166,
      "ĠBrook": 7167,
      "should": 7168,
      "Ġ1985": 7169,
      "Ġconfess": 7170,
      "Ġproperly": 7171,
      "Ġhunting": 7172,
      "Fraser": 7173,
      "Ġfreedom": 7174,
      "Ġrear": 7175,
      "Ġreward": 7176,
      "ĠAlf": 7177,
      "ĠĠĠĠĠ": 7178,
      "Ġenemies": 7179,
      "ĠYOUR": 7180,
      "Ġknees": 7181,
      "ĠPhilip": 7182,
      "Ġlifted": 7183,
      "Ġobserved": 7184,
      "Ġbroadcast": 7185,
      "Ġetc": 7186,
      "Ġsource": 7187,
      "Ġromantic": 7188,
      "Ġindividual": 7189,
      "Ġpregnant": 7190,
      "NE": 7191,
      "wa": 7192,
      "Ġnick": 7193,
      "ĠList": 7194,
      "ĠKim": 7195,
      "Ġrecomm": 7196,
      "Ġsits": 7197,
      "Ġsooner": 7198,
      "ĠIndians": 7199,
      "Ġtaperecorder": 7200,
      "Ġexperi": 7201,
      "ĠTeam": 7202,
      "Ġrecognize": 7203,
      "Ġfurniture": 7204,
      "Remember": 7205,
      "gly": 7206,
      "iation": 7207,
      "Ġsouthern": 7208,
      "orter": 7209,
      "Ġgently": 7210,
      "ooke": 7211,
      "ĠSC": 7212,
      "Ġability": 7213,
      "Ġsport": 7214,
      "owned": 7215,
      "rane": 7216,
      "ĠChicago": 7217,
      "Ġresident": 7218,
      "Ġwarri": 7219,
      "Ġsquee": 7220,
      "pointing": 7221,
      "Ġdelighted": 7222,
      "MacWhinney": 7223,
      "Ġcircumstances": 7224,
      "Sometimes": 7225,
      "Ġaston": 7226,
      "icing": 7227,
      "Ġeh": 7228,
      "ĠSol": 7229,
      "ĠMars": 7230,
      "Ġanno": 7231,
      "ĠEthel": 7232,
      "Ġplayers": 7233,
      "Ġguest": 7234,
      "iple": 7235,
      "Ġbegun": 7236,
      "Ġpointed": 7237,
      "Ġribb": 7238,
      "ĠSwiss": 7239,
      "Ġmiserable": 7240,
      "Ġstatement": 7241,
      "Ġcowboy": 7242,
      "ropolitan": 7243,
      "dro": 7244,
      "ju": 7245,
      "piece": 7246,
      "ture": 7247,
      "Ġwitch": 7248,
      "rets": 7249,
      "Ġinn": 7250,
      "omed": 7251,
      "oots": 7252,
      "irit": 7253,
      "Ġgettin": 7254,
      "ĠKen": 7255,
      "neath": 7256,
      "Ġclient": 7257,
      "Ġbrush": 7258,
      "ĠInstitute": 7259,
      "Ġappears": 7260,
      "ĠAmericans": 7261,
      "Ġknee": 7262,
      "ĠAnne": 7263,
      "excuse": 7264,
      "Ġbaseball": 7265,
      "Ġmarked": 7266,
      "Ġsplit": 7267,
      "ĠService": 7268,
      "making": 7269,
      "Ġder": 7270,
      "rose": 7271,
      "ĠHaw": 7272,
      "umed": 7273,
      "ĠJr": 7274,
      "ĠVol": 7275,
      "Ġunfortun": 7276,
      "Ġrelax": 7277,
      "ĠGroup": 7278,
      "ealous": 7279,
      "Ġruled": 7280,
      "Ġdiscussion": 7281,
      "ĠMexican": 7282,
      "Ġintroduced": 7283,
      "olarship": 7284,
      "Make": 7285,
      "fish": 7286,
      "reck": 7287,
      "Ġcong": 7288,
      "Ġlat": 7289,
      "Ġnib": 7290,
      "ĠRa": 7291,
      "ĠLu": 7292,
      "berry": 7293,
      "Ġexpensive": 7294,
      "ĠHealth": 7295,
      "Ġagent": 7296,
      "Ġcris": 7297,
      "Ġmayor": 7298,
      "Ġbreast": 7299,
      "Ġwarning": 7300,
      "inson": 7301,
      "Ġsupported": 7302,
      "Ġoccurred": 7303,
      "Love": 7304,
      "Sha": 7305,
      "rels": 7306,
      "Ġgain": 7307,
      "Ġgang": 7308,
      "Ġkick": 7309,
      "Ġjew": 7310,
      "ĠDire": 7311,
      "Ġalarm": 7312,
      "ĠLO": 7313,
      "rang": 7314,
      "icted": 7315,
      "Ġ1986": 7316,
      "Ġtravell": 7317,
      "Looks": 7318,
      "Ġ1979": 7319,
      "ĠReport": 7320,
      "Ġwaved": 7321,
      "ylvan": 7322,
      "Ġelectric": 7323,
      "AUG": 7324,
      "ropriate": 7325,
      "!--": 7326,
      "Ad": 7327,
      "App": 7328,
      "Cha": 7329,
      "bal": 7330,
      "him": 7331,
      "pot": 7332,
      "uzz": 7333,
      "Ġign": 7334,
      "Ġtire": 7335,
      "Ġlob": 7336,
      "imer": 7337,
      "Ġstole": 7338,
      "ĠTra": 7339,
      "Ġspark": 7340,
      "Ġspect": 7341,
      "Ġwhenever": 7342,
      "ĠKat": 7343,
      "Ġresour": 7344,
      "aws": 7345,
      "ĠBefore": 7346,
      "Ġassistant": 7347,
      "bab": 7348,
      "ĠSong": 7349,
      "ĠTommy": 7350,
      "ĠTrans": 7351,
      "Ġmeas": 7352,
      "Ġfever": 7353,
      "atherine": 7354,
      "gets": 7355,
      "Ġcriter": 7356,
      "Ġ1984": 7357,
      "196": 7358,
      "Ġreply": 7359,
      "GRF": 7360,
      "doesn": 7361,
      "Ġpropos": 7362,
      "turns": 7363,
      "ĠIraq": 7364,
      "Geor": 7365,
      "onies": 7366,
      "isy": 7367,
      "Ġfully": 7368,
      "Ġthorough": 7369,
      "Ġwashed": 7370,
      "ĠMen": 7371,
      "hib": 7372,
      "Ġaffect": 7373,
      "Ġawake": 7374,
      "ĠClub": 7375,
      "Ġproduct": 7376,
      "cest": 7377,
      "foot": 7378,
      "nut": 7379,
      "san": 7380,
      "Ġx": 7381,
      "ĠTH": 7382,
      "ĠBour": 7383,
      "unting": 7384,
      "ĠGames": 7385,
      "ĠUK": 7386,
      "adder": 7387,
      "Ġattended": 7388,
      "Ġdrunk": 7389,
      "dey": 7390,
      "Ġpolitics": 7391,
      "Ġ90": 7392,
      "Ġapproach": 7393,
      "Ġneighb": 7394,
      "Ġrequired": 7395,
      "Ġaccepted": 7396,
      "ĠJewish": 7397,
      "Ġwave": 7398,
      "rier": 7399,
      "Ġashamed": 7400,
      "ĠBra": 7401,
      "elled": 7402,
      "umm": 7403,
      "ĠWITH": 7404,
      "Ġrang": 7405,
      "ĠFour": 7406,
      "ĠNik": 7407,
      "ĠJam": 7408,
      "intend": 7409,
      "shine": 7410,
      "Ġboxes": 7411,
      "Ġroads": 7412,
      "Ġdefeat": 7413,
      "Ġeffects": 7414,
      "Should": 7415,
      "hemat": 7416,
      "Ġtechn": 7417,
      "Ġsuffering": 7418,
      "ĠMickey": 7419,
      "Ġneighborhood": 7420,
      "Phil": 7421,
      "Ġarranged": 7422,
      "[\"": 7423,
      "Ġmuseum": 7424,
      "Ġfishing": 7425,
      "vering": 7426,
      "ĠCont": 7427,
      "ĠJos": 7428,
      "Ġimpl": 7429,
      "OULD": 7430,
      "Ġtribe": 7431,
      "Ġhorror": 7432,
      "Ġlanded": 7433,
      "Ġprovided": 7434,
      "keeper": 7435,
      "Ġimprove": 7436,
      "Baby": 7437,
      "Up": 7438,
      "bi": 7439,
      "nice": 7440,
      "nels": 7441,
      "thanks": 7442,
      "Ġgreet": 7443,
      "Ġstack": 7444,
      "Ġash": 7445,
      "Ġwhist": 7446,
      "Ġcomr": 7447,
      "ĠKNOW": 7448,
      "Ġ35": 7449,
      "ĠYoung": 7450,
      "Ġdollar": 7451,
      "Ġlately": 7452,
      "Ġservants": 7453,
      "ĠTrump": 7454,
      "Ġphotograph": 7455,
      "Ġrapidly": 7456,
      "Ġjournalist": 7457,
      "ĠVirginia": 7458,
      "Bar": 7459,
      "Back": 7460,
      "Fe": 7461,
      "Help": 7462,
      "Happy": 7463,
      "JO": 7464,
      "Ġze": 7465,
      "Ġcraw": 7466,
      "Ġhesit": 7467,
      "ĠBang": 7468,
      "umble": 7469,
      "ĠUN": 7470,
      "Ġdesire": 7471,
      "ĠArmen": 7472,
      "Ġtrem": 7473,
      "Ġwrites": 7474,
      "ĠBlue": 7475,
      "Ġsending": 7476,
      "Ġillustr": 7477,
      "ĠCommittee": 7478,
      "Ġpresidential": 7479,
      "Ġoperation": 7480,
      "Ġcritical": 7481,
      "ĠRoad": 7482,
      "Ġbalance": 7483,
      "Ġconduct": 7484,
      "sembly": 7485,
      "contin": 7486,
      "gues": 7487,
      "gency": 7488,
      "kind": 7489,
      "tw": 7490,
      "hara": 7491,
      "Ġbrill": 7492,
      "Ġfile": 7493,
      "Ġpant": 7494,
      "Ġlatter": 7495,
      "ript": 7496,
      "seven": 7497,
      "through": 7498,
      "ĠPac": 7499,
      "Ġsaving": 7500,
      "ques": 7501,
      "ender": 7502,
      "Ġsticking": 7503,
      "Donald": 7504,
      "Ġinstit": 7505,
      "kesp": 7506,
      "Ġlesson": 7507,
      "ĠOnly": 7508,
      "Ġsalami": 7509,
      "Ġhoped": 7510,
      "Ġrecognized": 7511,
      "Ġpersu": 7512,
      "Ġawarded": 7513,
      "Ġarchite": 7514,
      "ĠJacob": 7515,
      "24": 7516,
      "BAB": 7517,
      "Cap": 7518,
      "aylor": 7519,
      "Ġugly": 7520,
      "Ġgoals": 7521,
      "ĠHal": 7522,
      "ĠPL": 7523,
      "Ġgray": 7524,
      "Ġkeys": 7525,
      "Ġfleet": 7526,
      "Ġdamage": 7527,
      "ĠBelg": 7528,
      "Ġrevolution": 7529,
      "Ġvirus": 7530,
      "careful": 7531,
      "',": 7532,
      "__": 7533,
      "ji": 7534,
      "lav": 7535,
      "wen": 7536,
      "rep": 7537,
      "Ġox": 7538,
      "Ġbears": 7539,
      "also": 7540,
      "Ġstared": 7541,
      "gend": 7542,
      "olen": 7543,
      "ĠLy": 7544,
      "Ġ(,": 7545,
      "Ġgoodbye": 7546,
      "Ġrope": 7547,
      "Ġbrand": 7548,
      "Ġscissors": 7549,
      "Ġsecure": 7550,
      "Ġminor": 7551,
      "alend": 7552,
      "Ġaircraft": 7553,
      "Ġrecords": 7554,
      "REAM": 7555,
      "Ġdaily": 7556,
      "Ġforests": 7557,
      "Ġautom": 7558,
      "Ã³n": 7559,
      "Ġelder": 7560,
      "aunton": 7561,
      "Ġmicrophone": 7562,
      "JAK": 7563,
      "UE": 7564,
      "ias": 7565,
      "mpt": 7566,
      "Ġbark": 7567,
      "ĠBern": 7568,
      "ĠLater": 7569,
      "ints": 7570,
      "ĠProt": 7571,
      "Ġincred": 7572,
      "Ġeventually": 7573,
      "Ġestate": 7574,
      "Ġslipped": 7575,
      "Ġinvestigation": 7576,
      "ĠBundle": 7577,
      "Ġwondered": 7578,
      "ĠProfessor": 7579,
      "Jan": 7580,
      "gment": 7581,
      "hot": 7582,
      "Ġ/": 7583,
      "Ġtale": 7584,
      "Ġinha": 7585,
      "sell": 7586,
      "entine": 7587,
      "ĠScientists": 7588,
      "Ġjealous": 7589,
      "ĠNO": 7590,
      "ĠUr": 7591,
      "Ġprecious": 7592,
      "Ġcommittee": 7593,
      "Ġstops": 7594,
      "ĠPhilipp": 7595,
      "Ġthrowing": 7596,
      "ĠNorway": 7597,
      "Ġhorseshoe": 7598,
      "Ġmusical": 7599,
      "ĠAnton": 7600,
      "ĠScottish": 7601,
      "aisy": 7602,
      "Ġadvantage": 7603,
      "Ġconflict": 7604,
      "IM": 7605,
      "nam": 7606,
      "zing": 7607,
      "Ġtoast": 7608,
      "Ġhook": 7609,
      "Ġthrill": 7610,
      "ĠAng": 7611,
      "ĠHem": 7612,
      "ĠWars": 7613,
      "ĠGro": 7614,
      "Ġbron": 7615,
      "Ġappeal": 7616,
      "Ġapparently": 7617,
      "Ġkindly": 7618,
      "Ġsupply": 7619,
      "Ġbelief": 7620,
      "ouncill": 7621,
      "Ġsounded": 7622,
      "Ġadvance": 7623,
      "Ġengaged": 7624,
      "Ġmunicipal": 7625,
      "ĠJews": 7626,
      "Ġnetwork": 7627,
      "ĠHeaven": 7628,
      "ylvania": 7629,
      "?âĢĻ": 7630,
      "Ge": 7631,
      "Last": 7632,
      "Out": 7633,
      "hus": 7634,
      "pan": 7635,
      "shire": 7636,
      "iting": 7637,
      "Ġopt": 7638,
      "Ġodd": 7639,
      "Ġanger": 7640,
      "Ġmyst": 7641,
      "ĠDa": 7642,
      "pencer": 7643,
      "ĠÃĸ": 7644,
      "hands": 7645,
      "Ġearnest": 7646,
      "Ġadventure": 7647,
      "BE": 7648,
      "PS": 7649,
      "ghan": 7650,
      "lies": 7651,
      "mil": 7652,
      "said": 7653,
      "Ġgiraffe": 7654,
      "ĠAny": 7655,
      "ulate": 7656,
      "Ġseek": 7657,
      "ĠStaunton": 7658,
      "Ġcompleted": 7659,
      "Ġgreatly": 7660,
      "door": 7661,
      "ĠBruce": 7662,
      "Ġadmir": 7663,
      "Ġordinary": 7664,
      "Ġconnected": 7665,
      "Ġfocus": 7666,
      "AC": 7667,
      "Mary": 7668,
      "NON": 7669,
      "rate": 7670,
      "sometimes": 7671,
      "ĠIII": 7672,
      "Ġhunt": 7673,
      "riger": 7674,
      "ĠBad": 7675,
      "Ġseized": 7676,
      "ĠHamps": 7677,
      "oli": 7678,
      "ardy": 7679,
      "upid": 7680,
      "Ġunhappy": 7681,
      "Ġstandard": 7682,
      "Ġtrained": 7683,
      "coming": 7684,
      "Ġilleg": 7685,
      "Ġequal": 7686,
      "Ġgraduated": 7687,
      "ĠUkraine": 7688,
      "Ġescaped": 7689,
      "ĠHampshire": 7690,
      "Many": 7691,
      "Peter": 7692,
      "even": 7693,
      "Ġaye": 7694,
      "Ġfederal": 7695,
      "Ġpup": 7696,
      "Ġstones": 7697,
      "ĠFootball": 7698,
      "Ġtrunk": 7699,
      "ĠUE": 7700,
      "Ġunf": 7701,
      "Ġcauses": 7702,
      "Ġstronger": 7703,
      "GRM": 7704,
      "Ġrolling": 7705,
      "Ġprisoner": 7706,
      "III": 7707,
      "Ġtorn": 7708,
      "Ġsuffer": 7709,
      "Ġsatisfied": 7710,
      "ĠPrize": 7711,
      "gasps": 7712,
      "cohol": 7713,
      "ĠWrestling": 7714,
      "FE": 7715,
      "live": 7716,
      "Ġsought": 7717,
      "Ġowe": 7718,
      "ĠSil": 7719,
      "ĠSouthern": 7720,
      "amen": 7721,
      "ĠCub": 7722,
      "Ġhers": 7723,
      "Ġaltern": 7724,
      "next": 7725,
      "ollo": 7726,
      "ĠYet": 7727,
      "Ġflood": 7728,
      "Ġcontain": 7729,
      "Ġshower": 7730,
      "ensive": 7731,
      "Ġtremb": 7732,
      "Ġ1978": 7733,
      "ĠGrace": 7734,
      "Ġmurm": 7735,
      "hetti": 7736,
      "Ġwounded": 7737,
      "ĠPictures": 7738,
      "Richard": 7739,
      "Ġwoke": 7740,
      "Ġborrow": 7741,
      "ithe": 7742,
      "Ġdoctors": 7743,
      "child": 7744,
      "ĠPop": 7745,
      "Ġupper": 7746,
      "ĠWee": 7747,
      "Ġspr": 7748,
      "ĠOther": 7749,
      "Ġboyfriend": 7750,
      "Ġpassage": 7751,
      "Ġ1976": 7752,
      "Ġattacks": 7753,
      "Ġjumping": 7754,
      "Ġsystems": 7755,
      "Ġcosts": 7756,
      "Ġsecretary": 7757,
      "stitution": 7758,
      "ĠRegion": 7759,
      "ĠBertha": 7760,
      "GE": 7761,
      "Hurry": 7762,
      "Little": 7763,
      "Mic": 7764,
      "bus": 7765,
      "iot": 7766,
      "ties": 7767,
      "Ġwing": 7768,
      "Ġpowers": 7769,
      "Ġhills": 7770,
      "lets": 7771,
      "Ġnaught": 7772,
      "Ġnonsense": 7773,
      "iry": 7774,
      "ĠAccording": 7775,
      "Ġseated": 7776,
      "unh": 7777,
      "Ġsocks": 7778,
      "Ġspin": 7779,
      "IST": 7780,
      "Ġsched": 7781,
      "Ġunderneath": 7782,
      "izes": 7783,
      "Ġresolved": 7784,
      "Ġfollows": 7785,
      "Ġinstru": 7786,
      "Ġawfully": 7787,
      "Ġclosely": 7788,
      "ĠAtt": 7789,
      "Ġmagnetic": 7790,
      "Ġdemonstr": 7791,
      "Ġequip": 7792,
      "ĠAldworth": 7793,
      "Ġgarage": 7794,
      "Ġpizza": 7795,
      "ĠRevolution": 7796,
      "Life": 7797,
      "Person": 7798,
      "eight": 7799,
      "uits": 7800,
      "Ġcro": 7801,
      "Ġcash": 7802,
      "Ġpitch": 7803,
      "keys": 7804,
      "ĠĠĠ": 7805,
      "ĠLo": 7806,
      "venue": 7807,
      "Ġpeanut": 7808,
      "Ġarmed": 7809,
      "Ġworkers": 7810,
      "Ġprince": 7811,
      "Ġrecall": 7812,
      "Ġconfidence": 7813,
      "Ġshopping": 7814,
      "Ġencoura": 7815,
      "ĠMaggie": 7816,
      "ĠBattle": 7817,
      "ĠJennie": 7818,
      "Ġfarther": 7819,
      "Poor": 7820,
      "uing": 7821,
      "west": 7822,
      "Ġmercy": 7823,
      "Ġdiss": 7824,
      "Ġdull": 7825,
      "orney": 7826,
      "Ġthirst": 7827,
      "ĠCaterpillar": 7828,
      "eare": 7829,
      "throw": 7830,
      "ĠWoo": 7831,
      "aka": 7832,
      "Ġhanded": 7833,
      "Ġaccused": 7834,
      "ĠAlice": 7835,
      "ologist": 7836,
      "Ġ1930": 7837,
      "ĠJackson": 7838,
      "ĠOliver": 7839,
      "80": 7840,
      "Has": 7841,
      "Try": 7842,
      "Today": 7843,
      "gra": 7844,
      "Ġwow": 7845,
      "Ġdom": 7846,
      "Ġheight": 7847,
      "Ġwashing": 7848,
      "ĠAyl": 7849,
      "ĠRangers": 7850,
      "ĠGi": 7851,
      "Ġtricks": 7852,
      "ublic": 7853,
      "Ġeighteen": 7854,
      "ĠThree": 7855,
      "Ġanimated": 7856,
      "Ġsympt": 7857,
      "Ġ1983": 7858,
      "Ġeastern": 7859,
      "Ġ80": 7860,
      "Ġofficially": 7861,
      "Ġdivision": 7862,
      "Ġplatform": 7863,
      "quarters": 7864,
      "Ġexchange": 7865,
      "Sm": 7866,
      "Welcome": 7867,
      "nis": 7868,
      "sal": 7869,
      "Ġfenc": 7870,
      "ĠMusic": 7871,
      "ĠMiddle": 7872,
      "Ġsauce": 7873,
      "gee": 7874,
      "Ġarcher": 7875,
      "Ġgrade": 7876,
      "Ġdrum": 7877,
      "alem": 7878,
      "Ġregret": 7879,
      "ĠRepresent": 7880,
      "Ġfavourite": 7881,
      "Ġcurious": 7882,
      "rigerator": 7883,
      "Col": 7884,
      "Hmm": 7885,
      "Jack": 7886,
      "WHAT": 7887,
      "Ġcries": 7888,
      "Ġpushing": 7889,
      "stant": 7890,
      "Ġkings": 7891,
      "ĠPra": 7892,
      "Ġjury": 7893,
      "ieve": 7894,
      "quiet": 7895,
      "ardo": 7896,
      "Ġspy": 7897,
      "ĠUP": 7898,
      "ockey": 7899,
      "Ġrecent": 7900,
      "ï¿½ï¿½ï¿½": 7901,
      "Ġfarmer": 7902,
      "Ġache": 7903,
      "Ġchart": 7904,
      "Ġdecor": 7905,
      "Ġdata": 7906,
      "Ġfactory": 7907,
      "Ġ1969": 7908,
      "Ġexplan": 7909,
      "Ġdrops": 7910,
      "Ġdisappointed": 7911,
      "Ġdifficulty": 7912,
      "ynam": 7913,
      "ĠCentre": 7914,
      "Ġdelightful": 7915,
      "Next": 7916,
      "Ġbasketball": 7917,
      "ĠSteve": 7918,
      "pretty": 7919,
      "Ġmanagement": 7920,
      "Ġenvironmental": 7921,
      "Jo": 7922,
      "bie": 7923,
      "erk": 7924,
      "ĠTower": 7925,
      "ĠBon": 7926,
      "ĠBam": 7927,
      "ĠBud": 7928,
      "ĠPenn": 7929,
      "ĠKate": 7930,
      "Ġprem": 7931,
      "whose": 7932,
      "Ġinstance": 7933,
      "Ġtrains": 7934,
      "Ġdrinks": 7935,
      "Ġ1968": 7936,
      "Ġbloody": 7937,
      "Ġdragon": 7938,
      "Ġhousing": 7939,
      "Ġmultiple": 7940,
      "ĠFrancisco": 7941,
      "DO": 7942,
      "Te": 7943,
      "aurs": 7944,
      "pher": 7945,
      "ington": 7946,
      "Ġlung": 7947,
      "ompl": 7948,
      "ĠSant": 7949,
      "unn": 7950,
      "Ġjail": 7951,
      "ĠJerry": 7952,
      "Ġbrings": 7953,
      "ĠVen": 7954,
      "Ġpermission": 7955,
      "arson": 7956,
      "aughters": 7957,
      "Ġfunction": 7958,
      "EST": 7959,
      "Ġinstr": 7960,
      "Ġ1982": 7961,
      "Everybody": 7962,
      "Ã¡n": 7963,
      "Ġvictims": 7964,
      "ĠSweden": 7965,
      "ĠAylmer": 7966,
      "Watch": 7967,
      "bling": 7968,
      "pos": 7969,
      "sorry": 7970,
      "Ġsings": 7971,
      "orge": 7972,
      "eding": 7973,
      "atre": 7974,
      "ĠMouse": 7975,
      "ĠAB": 7976,
      "ĠBrother": 7977,
      "Ġcharged": 7978,
      "ĠClara": 7979,
      "Ġsquir": 7980,
      "Ġtypes": 7981,
      "ĠWales": 7982,
      "Ġslip": 7983,
      "Ġbillion": 7984,
      "ĠIslamic": 7985,
      "ĠUEFA": 7986,
      "TV": 7987,
      "dri": 7988,
      "hell": 7989,
      "Ġmood": 7990,
      "Ġgle": 7991,
      "ĠCH": 7992,
      "ifts": 7993,
      "ieutenant": 7994,
      "ĠLar": 7995,
      "Ġworn": 7996,
      "resp": 7997,
      "Ġgrateful": 7998,
      "Ġimage": 7999,
      "Ġpassion": 8000,
      "Ġhighly": 8001,
      "omma": 8002,
      "Ġsignal": 8003,
      "ĠFloss": 8004,
      "reading": 8005,
      "ĠCarle": 8006,
      "Ġmaintain": 8007,
      "Ġexperiment": 8008,
      "ĠNothing": 8009,
      "Ġprinci": 8010,
      "Ġscreaming": 8011,
      "Ġfrequ": 8012,
      "ĠBetty": 8013,
      "oscow": 8014,
      "Ġnominated": 8015,
      "des": 8016,
      "sw": 8017,
      "ammy": 8018,
      "ĠAk": 8019,
      "ĠAmy": 8020,
      "ĠPo": 8021,
      "ĠGot": 8022,
      "Ġunus": 8023,
      "Ġsmo": 8024,
      "Ġdese": 8025,
      "inned": 8026,
      "Ġreturns": 8027,
      "Ġ1971": 8028,
      "Ġchairs": 8029,
      "Ġamongst": 8030,
      "Ġspirits": 8031,
      "Ġexercise": 8032,
      "ĠStephen": 8033,
      "BI": 8034,
      "KID": 8035,
      "gins": 8036,
      "pur": 8037,
      "tes": 8038,
      "Ġeth": 8039,
      "Ġlaughter": 8040,
      "Ġforb": 8041,
      "opy": 8042,
      "Ġaltogether": 8043,
      "ĠLong": 8044,
      "ĠStone": 8045,
      "ups": 8046,
      "Ġrealized": 8047,
      "Ġhundreds": 8048,
      "Ġinstant": 8049,
      "Ġintended": 8050,
      "Whoa": 8051,
      "Ġprior": 8052,
      "ĠMayor": 8053,
      "Ġtempt": 8054,
      "Ġringing": 8055,
      "Ġteachers": 8056,
      "Ġfortun": 8057,
      "Ġphysical": 8058,
      "lemn": 8059,
      "Another": 8060,
      "vard": 8061,
      "esc": 8062,
      "Ġgal": 8063,
      "ĠSa": 8064,
      "Ġkangaroo": 8065,
      "ĠHor": 8066,
      "ĠPower": 8067,
      "Ġsav": 8068,
      "agon": 8069,
      "venge": 8070,
      "Ġfeast": 8071,
      "Ġcheap": 8072,
      "Ġcommitted": 8073,
      "Stay": 8074,
      "Although": 8075,
      "Ġprotection": 8076,
      "Ġdetails": 8077,
      "ĠTele": 8078,
      "Ġpattern": 8079,
      "Leave": 8080,
      "Ġagreement": 8081,
      "Ġboot": 8082,
      "Ġmac": 8083,
      "omi": 8084,
      "omer": 8085,
      "lying": 8086,
      "ĠGET": 8087,
      "Ġplot": 8088,
      "Ġsuffic": 8089,
      "Ġcolored": 8090,
      "ibly": 8091,
      "Ġconsult": 8092,
      "apping": 8093,
      "iversal": 8094,
      "Ġsigns": 8095,
      "Ġ1945": 8096,
      "Ġmillions": 8097,
      "Ġmistress": 8098,
      "ĠAfghan": 8099,
      "somebody": 8100,
      "ĠDanny": 8101,
      "Ġvolume": 8102,
      "Ġstruggle": 8103,
      "ufact": 8104,
      "Ġequipment": 8105,
      "Aha": 8106,
      "SC": 8107,
      "Shall": 8108,
      "bird": 8109,
      "fa": 8110,
      "paper": 8111,
      "sur": 8112,
      "win": 8113,
      "Ġwinner": 8114,
      "Ġwolf": 8115,
      "Ġben": 8116,
      "iser": 8117,
      "Ġdiamond": 8118,
      "ĠShan": 8119,
      "ĠBible": 8120,
      "Ġrude": 8121,
      "ĠFre": 8122,
      "Ġshy": 8123,
      "ĠNations": 8124,
      "ĠUnder": 8125,
      "Ġcarpet": 8126,
      "uced": 8127,
      "Ġhumans": 8128,
      "Ġevolution": 8129,
      "Ġcorpor": 8130,
      "shakes": 8131,
      "ĠGreece": 8132,
      "ĠBerlin": 8133,
      "ev": 8134,
      "rac": 8135,
      "rand": 8136,
      "Ġpond": 8137,
      "Ġhipp": 8138,
      "ĠTem": 8139,
      "ĠTime": 8140,
      "ĠHong": 8141,
      "ieur": 8142,
      "Ġdece": 8143,
      "ĠRail": 8144,
      "ĠNever": 8145,
      "ĠNana": 8146,
      "Ġvast": 8147,
      "obal": 8148,
      "Ġelev": 8149,
      "Ġminds": 8150,
      "Ġinterrup": 8151,
      "Ġfootballer": 8152,
      "yyy": 8153,
      "Ġauthorities": 8154,
      "Ġwhisper": 8155,
      "Ġlabel": 8156,
      "Ġincreased": 8157,
      "Ġsexual": 8158,
      "Ġscientific": 8159,
      "kespeare": 8160,
      "26": 8161,
      "belt": 8162,
      "ees": 8163,
      "gives": 8164,
      "Ġbore": 8165,
      "Ġdirt": 8166,
      "Ġgum": 8167,
      "Ġlem": 8168,
      "Ġlamb": 8169,
      "Ġwebs": 8170,
      "ĠCy": 8171,
      "Ġlif": 8172,
      "ĠFestival": 8173,
      "istor": 8174,
      "Ġvice": 8175,
      "ferences": 8176,
      "Ġcricket": 8177,
      "Ġearned": 8178,
      "ĠCarl": 8179,
      "Ġimportance": 8180,
      "ĠLeon": 8181,
      "Ġillness": 8182,
      "Ġcerem": 8183,
      "ĠPerhaps": 8184,
      "Ġdisappear": 8185,
      "ĠNorthern": 8186,
      "Ġbelonged": 8187,
      "Ġneighbour": 8188,
      "porary": 8189,
      "Ġconnection": 8190,
      "Ġeagerly": 8191,
      "Ġrescue": 8192,
      "Ġdivorce": 8193,
      "gro": 8194,
      "kitty": 8195,
      "Ġdu": 8196,
      "Ġdrain": 8197,
      "Ġdining": 8198,
      "Ġtom": 8199,
      "aro": 8200,
      "iro": 8201,
      "ĠSH": 8202,
      "ĠAra": 8203,
      "Ġancest": 8204,
      "ifer": 8205,
      "Ġjoint": 8206,
      "ppers": 8207,
      "ulated": 8208,
      "ĠJun": 8209,
      "them": 8210,
      "ĠVaud": 8211,
      "Ġflash": 8212,
      "actor": 8213,
      "onscious": 8214,
      "Ġactual": 8215,
      "Ġnights": 8216,
      "Ġsets": 8217,
      "Ġaccompl": 8218,
      "Ġfriendship": 8219,
      "Ġimpact": 8220,
      "Ġtechnology": 8221,
      "Ġresponsibility": 8222,
      "Ġscientists": 8223,
      "Ġstroke": 8224,
      "ĠCompany": 8225,
      "Four": 8226,
      "uous": 8227,
      "Ġtent": 8228,
      "ĠIm": 8229,
      "amas": 8230,
      "ĠMoscow": 8231,
      "ĠRimb": 8232,
      "ĠRIGHT": 8233,
      "ĠGriff": 8234,
      "Ġalcohol": 8235,
      "issy": 8236,
      "Ġletting": 8237,
      "Ġsche": 8238,
      "Ġ37": 8239,
      "Ġsixth": 8240,
      "ĠDev": 8241,
      "ĠJanet": 8242,
      "standing": 8243,
      "ĠReally": 8244,
      "ĠChampionships": 8245,
      "Ġbenefit": 8246,
      "Ġcabin": 8247,
      "Ġfolk": 8248,
      "ĠGolden": 8249,
      "Ġoccupied": 8250,
      "Ġbrilliant": 8251,
      "According": 8252,
      "isl": 8253,
      "enes": 8254,
      "Ġpoll": 8255,
      "atal": 8256,
      "rily": 8257,
      "ĠPier": 8258,
      "Ġsoap": 8259,
      "ĠFree": 8260,
      "ĠEastern": 8261,
      "icken": 8262,
      "agger": 8263,
      "aghetti": 8264,
      "ĠKong": 8265,
      "Ġunknown": 8266,
      "ĠInter": 8267,
      "Ġdriven": 8268,
      "ĠAsia": 8269,
      "Ġimpati": 8270,
      "zech": 8271,
      "Ġ1964": 8272,
      "Ġclimbed": 8273,
      "arrass": 8274,
      "probably": 8275,
      "Ġmotorcy": 8276,
      "Ġaudience": 8277,
      "ĠDesmond": 8278,
      "Ġvotes": 8279,
      "phew": 8280,
      "45": 8281,
      "Ser": 8282,
      "woman": 8283,
      "yard": 8284,
      "Ġmas": 8285,
      "adium": 8286,
      "ĠBird": 8287,
      "geant": 8288,
      "quick": 8289,
      "ĠOur": 8290,
      "Ġretire": 8291,
      "ĠNewman": 8292,
      "Ġdistingu": 8293,
      "Ġskill": 8294,
      "Ġ1977": 8295,
      "Ġsunshine": 8296,
      "ĠGuard": 8297,
      "ĠSyrian": 8298,
      "Ġindustrial": 8299,
      "Ġsenior": 8300,
      "Ġrestaurant": 8301,
      "Ġnibbled": 8302,
      "THAT": 8303,
      "azz": 8304,
      "bro": 8305,
      "tons": 8306,
      "vet": 8307,
      "Ġwire": 8308,
      "ito": 8309,
      "lly": 8310,
      "Ġpanc": 8311,
      "ĠHello": 8312,
      "Ġnephew": 8313,
      "uls": 8314,
      "ighed": 8315,
      "ĠNurse": 8316,
      "Ġvoted": 8317,
      "ordan": 8318,
      "Ġcoal": 8319,
      "ivity": 8320,
      "Ġcolour": 8321,
      "Ġsurgery": 8322,
      "Ġentrance": 8323,
      "Ġgrandma": 8324,
      "Ġexpecting": 8325,
      "Ġstarring": 8326,
      "Ġdawn": 8327,
      "Ġproduce": 8328,
      "Ġdoggy": 8329,
      "glas": 8330,
      "Ġargument": 8331,
      "Ġevidently": 8332,
      "Yep": 8333,
      "zy": 8334,
      "Ġward": 8335,
      "Ġnuclear": 8336,
      "ĠSky": 8337,
      "Ġstupid": 8338,
      "stick": 8339,
      "ĠAwards": 8340,
      "Ġseasons": 8341,
      "ĠHoo": 8342,
      "ĠDog": 8343,
      "ivered": 8344,
      "Ġunit": 8345,
      "aval": 8346,
      "Ġslave": 8347,
      "Ġawesome": 8348,
      "Ġvisitors": 8349,
      "kyo": 8350,
      "Ġworthy": 8351,
      "Ġaffairs": 8352,
      "Brown": 8353,
      "Ġfoolish": 8354,
      "Ġinjured": 8355,
      "]...": 8356,
      "mont": 8357,
      "uv": 8358,
      "won": 8359,
      "Ġax": 8360,
      "eral": 8361,
      "Ġmile": 8362,
      "aned": 8363,
      "asp": 8364,
      "Ġincome": 8365,
      "Ġbeings": 8366,
      "Ġmechan": 8367,
      "Ġselected": 8368,
      "ĠHu": 8369,
      "ĠAndy": 8370,
      "Ġswift": 8371,
      "Ġ185": 8372,
      "lessly": 8373,
      "UNT": 8374,
      "Ġ1946": 8375,
      "Ġcurtain": 8376,
      "ervative": 8377,
      "Ġpurse": 8378,
      "Ġhealthy": 8379,
      "hetic": 8380,
      "Ġconstitu": 8381,
      "Ġapologize": 8382,
      "Ġchallenge": 8383,
      "Ġsymptoms": 8384,
      "PA": 8385,
      "Run": 8386,
      "Ġ;": 8387,
      "Ġta": 8388,
      "Ġfate": 8389,
      "Ġlod": 8390,
      "alo": 8391,
      "utions": 8392,
      "ĠSO": 8393,
      "Ġstolen": 8394,
      "Ġsolemn": 8395,
      "ĠWater": 8396,
      "hia": 8397,
      "ĠKu": 8398,
      "uckle": 8399,
      "Ġharder": 8400,
      "Ġconfused": 8401,
      "Ġsteel": 8402,
      "Ġshortly": 8403,
      "Ġcontroll": 8404,
      "Ġviolence": 8405,
      "Ġholidays": 8406,
      "Ġsucceeded": 8407,
      "ĠPortugal": 8408,
      "Ġcrisis": 8409,
      "28": 8410,
      "Ã±": 8411,
      "Ġtrop": 8412,
      "Ġbent": 8413,
      "Ġyer": 8414,
      "Ġloyal": 8415,
      "ĠSHE": 8416,
      "ĠDet": 8417,
      "ĠRO": 8418,
      "Their": 8419,
      "ĠNa": 8420,
      "Ġconcl": 8421,
      "agno": 8422,
      "Ġmob": 8423,
      "Ġmothers": 8424,
      "Ġbelt": 8425,
      "Ġslaves": 8426,
      "pected": 8427,
      "ĠIslands": 8428,
      "Ġ1959": 8429,
      "Ġrequire": 8430,
      "Ġmajority": 8431,
      "ĠOffice": 8432,
      "ĠRimbolt": 8433,
      "Pol": 8434,
      "SO": 8435,
      "Ste": 8436,
      "TP": 8437,
      "VI": 8438,
      "bad": 8439,
      "lace": 8440,
      "uj": 8441,
      "Ġcig": 8442,
      "Ġcert": 8443,
      "Ġfuss": 8444,
      "enger": 8445,
      "arant": 8446,
      "arms": 8447,
      "ader": 8448,
      "Ġrejo": 8449,
      "Ġstool": 8450,
      "ĠBell": 8451,
      "Ġgolf": 8452,
      "Ġshed": 8453,
      "Ġshit": 8454,
      "ĠOUT": 8455,
      "Ġmanufact": 8456,
      "Ġremove": 8457,
      "Ġasks": 8458,
      "Ġsmooth": 8459,
      "Ġboom": 8460,
      "Ġconscious": 8461,
      "Ġdirections": 8462,
      "Ġtrail": 8463,
      "Ġpurcha": 8464,
      "Ġorganized": 8465,
      "Ġconcert": 8466,
      "Ġactivity": 8467,
      "magnet": 8468,
      "Ġculture": 8469,
      "Ġnursery": 8470,
      "ĠCambridge": 8471,
      "rifice": 8472,
      "Ġadopted": 8473,
      "ĠRomans": 8474,
      "Ġcitizens": 8475,
      "ĠGeorgia": 8476,
      "Ġresources": 8477,
      "press": 8478,
      "sn": 8479,
      "sylvania": 8480,
      "ĠTell": 8481,
      "ĠAsh": 8482,
      "ĠBow": 8483,
      "ĠBrennan": 8484,
      "Ġdeer": 8485,
      "Ġrhy": 8486,
      "abor": 8487,
      "aging": 8488,
      "people": 8489,
      "Ġacted": 8490,
      "ection": 8491,
      "Ġ38": 8492,
      "ports": 8493,
      "ĠBrooke": 8494,
      "Ġsixteen": 8495,
      "Ġ1974": 8496,
      "Ġconfir": 8497,
      "Ġartists": 8498,
      "Ġoccas": 8499,
      "ĠRussians": 8500,
      "Ġpretending": 8501,
      "ĠGreater": 8502,
      "ĠMelissa": 8503,
      "Ġembarrass": 8504,
      "27": 8505,
      "iber": 8506,
      "sun": 8507,
      "Ġcord": 8508,
      "Ġfox": 8509,
      "Ġpressed": 8510,
      "Ġonline": 8511,
      "ĠTake": 8512,
      "ĠAss": 8513,
      "eau": 8514,
      "ĠBall": 8515,
      "ĠBab": 8516,
      "ĠDON": 8517,
      "ĠRi": 8518,
      "ĠNight": 8519,
      "Ġsprang": 8520,
      "Ġcliff": 8521,
      "Ġfled": 8522,
      "Ġperform": 8523,
      "Ġ45": 8524,
      "Ġconsist": 8525,
      "Ġpresented": 8526,
      "Ġproducts": 8527,
      "Ġfaithful": 8528,
      "Ġeconomic": 8529,
      "Ġcaptured": 8530,
      "ĠHIM": 8531,
      "Ġscheme": 8532,
      "IG": 8533,
      "Six": 8534,
      "lon": 8535,
      "py": 8536,
      "Ġcam": 8537,
      "Ġcamps": 8538,
      "Ġpapa": 8539,
      "Ġinfe": 8540,
      "enters": 8541,
      "ĠCorn": 8542,
      "Ġconvin": 8543,
      "Ġunable": 8544,
      "Ġ33": 8545,
      "Ġmathemat": 8546,
      "gedy": 8547,
      "Ġindign": 8548,
      "Ġlands": 8549,
      "Ġ1975": 8550,
      "ipper": 8551,
      "ASE": 8552,
      "Ġtemple": 8553,
      "Ġrolled": 8554,
      "Ġpretends": 8555,
      "ĠPolice": 8556,
      "Ġdelicate": 8557,
      "burgh": 8558,
      "Jeff": 8559,
      "jump": 8560,
      "rad": 8561,
      "uals": 8562,
      "refer": 8563,
      "Ġduties": 8564,
      "almost": 8565,
      "ĠSure": 8566,
      "ĠSpencer": 8567,
      "ĠBunny": 8568,
      "ĠFound": 8569,
      "Ġshining": 8570,
      "ntil": 8571,
      "Ġcomin": 8572,
      "Ġcommit": 8573,
      "Ġhath": 8574,
      "Ġpops": 8575,
      "Ġthirteen": 8576,
      "Ġarticle": 8577,
      "flies": 8578,
      "Ġbanks": 8579,
      "ĠOxfordshire": 8580,
      "Ġhistorical": 8581,
      "Ġcheerful": 8582,
      "ĠFilm": 8583,
      "screams": 8584,
      "Ġheavily": 8585,
      "Ġfo": 8586,
      "Ġtoss": 8587,
      "Ġpardon": 8588,
      "ĠShow": 8589,
      "ĠCa": 8590,
      "ĠEs": 8591,
      "nah": 8592,
      "ĠOrd": 8593,
      "IND": 8594,
      "Ġquality": 8595,
      "ogue": 8596,
      "Ġpreviously": 8597,
      "Ġfounder": 8598,
      "Ġopens": 8599,
      "ĠNews": 8600,
      "Ġbeds": 8601,
      "Ġcharges": 8602,
      "Ġloving": 8603,
      "Ġ1947": 8604,
      "help": 8605,
      "Ġanxiety": 8606,
      "Ġpossibility": 8607,
      "Ġhammer": 8608,
      "Ġgazed": 8609,
      "Ġemergency": 8610,
      "Ap": 8611,
      "MP": 8612,
      "Ok": 8613,
      "find": 8614,
      "Ãª": 8615,
      "Ãĸ": 8616,
      "ĠHIS": 8617,
      "Ġcage": 8618,
      "Ġgrain": 8619,
      "Ġec": 8620,
      "uto": 8621,
      "Ġstrain": 8622,
      "ĠMans": 8623,
      "Ġkil": 8624,
      "ĠAmb": 8625,
      "ĠCzech": 8626,
      "ĠBol": 8627,
      "ĠBishop": 8628,
      "ĠFat": 8629,
      "Ġvirt": 8630,
      "ĠOk": 8631,
      "ĠStill": 8632,
      "ogne": 8633,
      "Ġteen": 8634,
      "Ġkeen": 8635,
      "Ġkinda": 8636,
      "Ġcommission": 8637,
      "Ġmarble": 8638,
      "Ġbasis": 8639,
      "Ġchairman": 8640,
      "Ġmarks": 8641,
      "holding": 8642,
      "Ġpacked": 8643,
      "ĠCenter": 8644,
      "adesh": 8645,
      "Ġcompanions": 8646,
      "Uncle": 8647,
      "Ġpersons": 8648,
      "Ġblew": 8649,
      "ĠBasil": 8650,
      "Ġcandidate": 8651,
      "Ġsymbol": 8652,
      "EAR": 8653,
      "LING": 8654,
      "gs": 8655,
      "life": 8656,
      "mitted": 8657,
      "otton": 8658,
      "ĠMerc": 8659,
      "ĠTha": 8660,
      "Ġje": 8661,
      "ĠDuck": 8662,
      "Ġspeaks": 8663,
      "Ġpepper": 8664,
      "Ġflu": 8665,
      "Ġchanging": 8666,
      "Ġ36": 8667,
      "Ġ500": 8668,
      "Ġsyll": 8669,
      "Ġdressing": 8670,
      "Ġpuppy": 8671,
      "Ġdrawer": 8672,
      "Ġclasses": 8673,
      "Ġadvanced": 8674,
      "Ġorganis": 8675,
      "elephan": 8676,
      "pal": 8677,
      "Ġsore": 8678,
      "Ġinse": 8679,
      "Ġincl": 8680,
      "ĠSix": 8681,
      "starts": 8682,
      "ĠTilly": 8683,
      "olas": 8684,
      "Ġbottles": 8685,
      "However": 8686,
      "Ġpointing": 8687,
      "Ġ1956": 8688,
      "ĠLeo": 8689,
      "Ġcomplex": 8690,
      "Ġbreathe": 8691,
      "Ġactivities": 8692,
      "Ġticket": 8693,
      "Second": 8694,
      "Ġthoroughly": 8695,
      "Big": 8696,
      "Em": 8697,
      "TO": 8698,
      "found": 8699,
      "zburg": 8700,
      "Ġcents": 8701,
      "Ġcows": 8702,
      "Ġdared": 8703,
      "ĠSand": 8704,
      "ĠTaylor": 8705,
      "ĠARE": 8706,
      "ĠBO": 8707,
      "Ġsheet": 8708,
      "ĠDown": 8709,
      "ĠRub": 8710,
      "Ġshove": 8711,
      "akistan": 8712,
      "Ġvic": 8713,
      "Ġtray": 8714,
      "Ġdisag": 8715,
      "Ġpronounced": 8716,
      "Ġflies": 8717,
      "Ġumbre": 8718,
      "Ġstays": 8719,
      "Ġyoungest": 8720,
      "bsolutely": 8721,
      "ĠDrum": 8722,
      "Ġtouching": 8723,
      "Ġmistakes": 8724,
      "Ġprograms": 8725,
      "ĠShakespeare": 8726,
      "Ġestablish": 8727,
      "ĠScholarship": 8728,
      "Ġclaims": 8729,
      "Ġefforts": 8730,
      "Ġinquired": 8731,
      "Ġdiscover": 8732,
      "ĠHelen": 8733,
      "iriam": 8734,
      "George": 8735,
      "ĠFlossie": 8736,
      "sar": 8737,
      "Ġcalend": 8738,
      "Ġdea": 8739,
      "Ġfed": 8740,
      "Ġfare": 8741,
      "orf": 8742,
      "Ġpoured": 8743,
      "thony": 8744,
      "ophy": 8745,
      "ĠWould": 8746,
      "Ġdisg": 8747,
      "Ġcompared": 8748,
      "Ġbuying": 8749,
      "Ġelections": 8750,
      "Ġ44": 8751,
      "Ġbasically": 8752,
      "ruct": 8753,
      "Ġ1967": 8754,
      "Ġstores": 8755,
      "someone": 8756,
      "Ġlaunch": 8757,
      "Ġwaters": 8758,
      "Ġthreatened": 8759,
      "Ġdegrees": 8760,
      "Ġï¿½ï¿½ï¿½ï¿½ï¿½ï¿½ï¿½ï¿½": 8761,
      "ĠColumbia": 8762,
      "29": 8763,
      "ACK": 8764,
      "Bob": 8765,
      "Five": 8766,
      "away": 8767,
      "mic": 8768,
      "made": 8769,
      "Ġmamma": 8770,
      "Ġdaughters": 8771,
      "Ġfits": 8772,
      "Ġtoe": 8773,
      "Ġpunch": 8774,
      "Ġlit": 8775,
      "ademic": 8776,
      "sex": 8777,
      "ĠCOM": 8778,
      "unte": 8779,
      "ĠPlease": 8780,
      "ĠPoint": 8781,
      "Ġnegot": 8782,
      "ĠRem": 8783,
      "ĠGor": 8784,
      "Ġaloud": 8785,
      "ĠJUST": 8786,
      "Ġvision": 8787,
      "Ġfee": 8788,
      "cipl": 8789,
      "Ġbetray": 8790,
      "teenth": 8791,
      "lip": 8792,
      "Ġmarch": 8793,
      "Ġcapable": 8794,
      "Ġ1940": 8795,
      "Ġcops": 8796,
      "Ġlabor": 8797,
      "ĠPolish": 8798,
      "ĠBrazilian": 8799,
      "cipal": 8800,
      "Ġachieve": 8801,
      "ĠRyan": 8802,
      "IV": 8803,
      "LES": 8804,
      "Talk": 8805,
      "Yo": 8806,
      "hors": 8807,
      "lers": 8808,
      "Ġbishop": 8809,
      "Ġpenn": 8810,
      "Ġhom": 8811,
      "lection": 8812,
      "Ġbegged": 8813,
      "ĠALL": 8814,
      "uns": 8815,
      "unched": 8816,
      "ths": 8817,
      "ĠWHAT": 8818,
      "ĠFle": 8819,
      "eline": 8820,
      "ousins": 8821,
      "bec": 8822,
      "Ġunits": 8823,
      "Ġframe": 8824,
      "ĠDeath": 8825,
      "Ġtriangle": 8826,
      "Ġhorrid": 8827,
      "Ġeditor": 8828,
      "Ġ1948": 8829,
      "Ġhopes": 8830,
      "ĠCommun": 8831,
      "Ġvalu": 8832,
      "Ġstatue": 8833,
      "Ġspending": 8834,
      "ĠKorea": 8835,
      "Ġtroubles": 8836,
      "Ġprospect": 8837,
      "Ġfierce": 8838,
      "ĠTurkish": 8839,
      "ĠPennsylvania": 8840,
      "\"'": 8841,
      "Jesus": 8842,
      "Time": 8843,
      "ridge": 8844,
      "zes": 8845,
      "Ġtales": 8846,
      "Ġwreck": 8847,
      "ndry": 8848,
      "Ġbord": 8849,
      "Ġdomin": 8850,
      "anes": 8851,
      "Ġthief": 8852,
      "aling": 8853,
      "ĠSnow": 8854,
      "hers": 8855,
      "ĠBus": 8856,
      "ĠHappy": 8857,
      "ĠWalk": 8858,
      "igen": 8859,
      "thew": 8860,
      "Ġending": 8861,
      "Ġbearing": 8862,
      "Ġgrape": 8863,
      "Ġcleaning": 8864,
      "Ġadmitted": 8865,
      "Ġpotato": 8866,
      "ĠBenjamin": 8867,
      "Ġraining": 8868,
      "Ġclothing": 8869,
      "ĠEmily": 8870,
      "ĠPoland": 8871,
      "Ġdinosaurs": 8872,
      "Ġmerely": 8873,
      "continues": 8874,
      "Hon": 8875,
      "Rob": 8876,
      "Turn": 8877,
      "rim": 8878,
      "Ġsne": 8879,
      "Ġded": 8880,
      "Ġdign": 8881,
      "ĠIan": 8882,
      "utiful": 8883,
      "ĠSometimes": 8884,
      "ĠHoly": 8885,
      "oples": 8886,
      "ummhm": 8887,
      "istics": 8888,
      "Ġexha": 8889,
      "udden": 8890,
      "ĠStella": 8891,
      "ROM": 8892,
      "Ġhappily": 8893,
      "ubrey": 8894,
      "addle": 8895,
      "Ġchildhood": 8896,
      "onsieur": 8897,
      "force": 8898,
      "Ġglanced": 8899,
      "Ġbits": 8900,
      "ĠChampion": 8901,
      "Ġdistinct": 8902,
      "Ġenthus": 8903,
      "Ġparliament": 8904,
      "ĠOnce": 8905,
      "Ġfigured": 8906,
      "Ġsneak": 8907,
      "ĠTokyo": 8908,
      "Ġdrag": 8909,
      "Ġbreathing": 8910,
      "Ġsubjects": 8911,
      "Ġexistence": 8912,
      "ĠMilan": 8913,
      "Ġvacation": 8914,
      "ĠArgentina": 8915,
      "Ġdesperate": 8916,
      "Ġcommercial": 8917,
      "Ġignor": 8918,
      "ĠPLAY": 8919,
      "Personal": 8920,
      "referring": 8921,
      "ĠDrummond": 8922,
      "Mart": 8923,
      "UL": 8924,
      "eh": 8925,
      "home": 8926,
      "Ġbree": 8927,
      "Ġladder": 8928,
      "ando": 8929,
      "Ġsector": 8930,
      "ĠRaj": 8931,
      "Ġaband": 8932,
      "eling": 8933,
      "ĠKir": 8934,
      "asses": 8935,
      "Ġprec": 8936,
      "mann": 8937,
      "Ġimpr": 8938,
      "awa": 8939,
      "ewis": 8940,
      "Ġ39": 8941,
      "gging": 8942,
      "Ġrelative": 8943,
      "ĠSpirit": 8944,
      "ÃŃn": 8945,
      "scri": 8946,
      "coln": 8947,
      "ĠCommission": 8948,
      "ĠDora": 8949,
      "Ġviews": 8950,
      "ĠTurkey": 8951,
      "Ġrepeat": 8952,
      "ĠHungary": 8953,
      "Ġaffected": 8954,
      "pulls": 8955,
      "ĠReliance": 8956,
      "Ġfeathers": 8957,
      "Ġbronze": 8958,
      "Ġillegal": 8959,
      "LIN": 8960,
      "TLE": 8961,
      "lar": 8962,
      "Ġtummy": 8963,
      "Ġsin": 8964,
      "nded": 8965,
      "Ġbrie": 8966,
      "Ġcas": 8967,
      "Ġtox": 8968,
      "Ġbeating": 8969,
      "ĠSel": 8970,
      "Ġath": 8971,
      "ĠBooth": 8972,
      "ĠFÃ¼": 8973,
      "igno": 8974,
      "ĠNep": 8975,
      "ĠNord": 8976,
      "ĠLau": 8977,
      "ĠLuke": 8978,
      "ĠEach": 8979,
      "icky": 8980,
      "Ġnowhere": 8981,
      "Ġenorm": 8982,
      "ĠVill": 8983,
      "ĠVien": 8984,
      "Ġchill": 8985,
      "Ġcru": 8986,
      "Ġ34": 8987,
      "exits": 8988,
      "Ġkidna": 8989,
      "Ġaddressed": 8990,
      "Ġpossession": 8991,
      "Ġconfident": 8992,
      "Ġ1965": 8993,
      "ĠColin": 8994,
      "Ġestim": 8995,
      "Somebody": 8996,
      "Ġgoddess": 8997,
      "Ġcommonly": 8998,
      "ĠDaniel": 8999,
      "Ġpunishment": 9000,
      "Ġtemperature": 9001,
      "Ġsurrounded": 9002,
      "Bi": 9003,
      "Sw": 9004,
      "Under": 9005,
      "poor": 9006,
      "squ": 9007,
      "Ġbay": 9008,
      "Ġcave": 9009,
      "Ġfucking": 9010,
      "Ġpul": 9011,
      "acious": 9012,
      "ĠBoth": 9013,
      "Ġcann": 9014,
      "ĠWolf": 9015,
      "ĠDie": 9016,
      "ĠDoub": 9017,
      "olk": 9018,
      "Ġsuicide": 9019,
      "Ġpee": 9020,
      "Ġbackwards": 9021,
      "Ġclo": 9022,
      "Ġrage": 9023,
      "Ġelement": 9024,
      "Ġdistant": 9025,
      "Ġcuts": 9026,
      "Ġrepro": 9027,
      "Ġ1973": 9028,
      "Ġexpert": 9029,
      "Ġruler": 9030,
      "Ġconsiderable": 9031,
      "ederation": 9032,
      "rafton": 9033,
      "Ġextraord": 9034,
      "Ġviolent": 9035,
      "called": 9036,
      "Ġrailway": 9037,
      "Ġbarely": 9038,
      "Ġaffection": 9039,
      "ĠEsther": 9040,
      "Ġexplanation": 9041,
      "Both": 9042,
      "cing": 9043,
      "grow": 9044,
      "orpor": 9045,
      "Ġgym": 9046,
      "otam": 9047,
      "riot": 9048,
      "stay": 9049,
      "ĠHay": 9050,
      "Ġspider": 9051,
      "orted": 9052,
      "ĠKnow": 9053,
      "Ġquant": 9054,
      "Ġfeature": 9055,
      "Were": 9056,
      "Ġdeserve": 9057,
      "ulture": 9058,
      "ĠApollo": 9059,
      "Ġ1942": 9060,
      "Ġdreamed": 9061,
      "Ġscare": 9062,
      "Ġtyp": 9063,
      "Ġnaturally": 9064,
      "Ġblowing": 9065,
      "Ġnormally": 9066,
      "ĠIsraeli": 9067,
      "Ġnapkin": 9068,
      "ĠMetropolitan": 9069,
      "ĠDragon": 9070,
      "Ġvehicle": 9071,
      "Ġsignificant": 9072,
      "Di": 9073,
      "hop": 9074,
      "Ġmars": 9075,
      "Ġinten": 9076,
      "ĠInt": 9077,
      "ĠSister": 9078,
      "alle": 9079,
      "ĠRus": 9080,
      "ccer": 9081,
      "Ġactions": 9082,
      "Ġchannels": 9083,
      "Ġcounting": 9084,
      "ĠEduc": 9085,
      "Ġcollea": 9086,
      "Ġ1943": 9087,
      "ĠINV": 9088,
      "ĠSpani": 9089,
      "Ġrevealed": 9090,
      "Ġcalendar": 9091,
      "Ġintense": 9092,
      "erest": 9093,
      "tree": 9094,
      "haw": 9095,
      "Ġcakes": 9096,
      "Ġpir": 9097,
      "ĠCare": 9098,
      "ĠCAN": 9099,
      "ĠHolly": 9100,
      "ores": 9101,
      "Ġabo": 9102,
      "Ġanyhow": 9103,
      "ĠValley": 9104,
      "Ġguarant": 9105,
      "Ġprime": 9106,
      "Ġshared": 9107,
      "Ġspoons": 9108,
      "Ġdragged": 9109,
      "Ġburnt": 9110,
      "Ġremarked": 9111,
      "build": 9112,
      "Ġexecutive": 9113,
      "ĠForest": 9114,
      "Ġnaughty": 9115,
      "Ġbriefly": 9116,
      "GO": 9117,
      "LW": 9118,
      "Mike": 9119,
      "Sit": 9120,
      "both": 9121,
      "tie": 9122,
      "Ã£": 9123,
      "Ġcou": 9124,
      "Ġgrief": 9125,
      "noises": 9126,
      "imately": 9127,
      "Ġreference": 9128,
      "secut": 9129,
      "opotam": 9130,
      "ĠPakistan": 9131,
      "estic": 9132,
      "inking": 9133,
      "Ġagents": 9134,
      "Ġclaimed": 9135,
      "Ġchin": 9136,
      "Ġstopping": 9137,
      "Ġcleared": 9138,
      "pector": 9139,
      "Ġcharts": 9140,
      "ĠAlan": 9141,
      "Ã©e": 9142,
      "Ġparade": 9143,
      "Ġdropping": 9144,
      "Ġinsurance": 9145,
      "Ġdipl": 9146,
      "Ġbeaten": 9147,
      "Ġmidst": 9148,
      "ĠJimmy": 9149,
      "milk": 9150,
      "Aren": 9151,
      "Des": 9152,
      "Sam": 9153,
      "crying": 9154,
      "ught": 9155,
      "Ã§": 9156,
      "Ġcooper": 9157,
      "Ġdial": 9158,
      "anwhile": 9159,
      "ashes": 9160,
      "aman": 9161,
      "ĠCher": 9162,
      "ĠPres": 9163,
      "ourse": 9164,
      "ĠGulf": 9165,
      "ĠGrafton": 9166,
      "Ġexact": 9167,
      "ranch": 9168,
      "ucks": 9169,
      "Ġeatin": 9170,
      "izations": 9171,
      "Ġnumer": 9172,
      "Ġphr": 9173,
      "Ġdrift": 9174,
      "enez": 9175,
      "Ġ1951": 9176,
      "Ġenjoying": 9177,
      "ĠJustice": 9178,
      "ĠLiber": 9179,
      "ĠFIFA": 9180,
      "500": 9181,
      "BS": 9182,
      "Eng": 9183,
      "Ro": 9184,
      "Sue": 9185,
      "brew": 9186,
      "knock": 9187,
      "trying": 9188,
      "via": 9189,
      "Ġboring": 9190,
      "orange": 9191,
      "Ġpoo": 9192,
      "arse": 9193,
      "iceless": 9194,
      "ĠSab": 9195,
      "ĠMid": 9196,
      "ĠWork": 9197,
      "osity": 9198,
      "ĠJenny": 9199,
      "Ġgrat": 9200,
      "Ġpartly": 9201,
      "URE": 9202,
      "Ġcommander": 9203,
      "grand": 9204,
      "ĠIndepend": 9205,
      "ĠAssembly": 9206,
      "----\"": 9207,
      "boat": 9208,
      "Ġ1952": 9209,
      "Ġgrab": 9210,
      "ĠHarvard": 9211,
      "Ġconcer": 9212,
      "Ġlouder": 9213,
      "Ġabsor": 9214,
      "Ġcrept": 9215,
      "Ġsolid": 9216,
      "Ġvisited": 9217,
      "Ġprimary": 9218,
      "yelling": 9219,
      "ĠBarbara": 9220,
      "AA": 9221,
      "Nor": 9222,
      "gonna": 9223,
      "kun": 9224,
      "ĠMOT": 9225,
      "Ġbars": 9226,
      "Ġcough": 9227,
      "Ġfetch": 9228,
      "eness": 9229,
      "aya": 9230,
      "oto": 9231,
      "oting": 9232,
      "start": 9233,
      "ĠAD": 9234,
      "ĠCON": 9235,
      "ĠBal": 9236,
      "una": 9237,
      "unks": 9238,
      "Ġdonkey": 9239,
      "ĠRh": 9240,
      "hings": 9241,
      "Ġguide": 9242,
      "adys": 9243,
      "Ġmock": 9244,
      "vention": 9245,
      "retched": 9246,
      "shh": 9247,
      "ertainly": 9248,
      "Ġimpression": 9249,
      "itches": 9250,
      "Ġgreenbelt": 9251,
      "Ġridic": 9252,
      "ĠHungarian": 9253,
      "ergus": 9254,
      "Ġvegetables": 9255,
      "Ġnegative": 9256,
      "ĠDouglas": 9257,
      "Ġcriminal": 9258,
      "Ġthirsty": 9259,
      "ĠHoover": 9260,
      "Honey": 9261,
      "lock": 9262,
      "move": 9263,
      "Ġcaut": 9264,
      "Ġstern": 9265,
      "ĠMoon": 9266,
      "stream": 9267,
      "outheast": 9268,
      "ATE": 9269,
      "iform": 9270,
      "Ġsauc": 9271,
      "umper": 9272,
      "ĠRap": 9273,
      "Ġrot": 9274,
      "ĠFer": 9275,
      "igers": 9276,
      "ements": 9277,
      "Ġsuitc": 9278,
      "resents": 9279,
      "theless": 9280,
      "Ġlegend": 9281,
      "Ġimit": 9282,
      "iped": 9283,
      "Ġlasted": 9284,
      "Ġperce": 9285,
      "Ġperman": 9286,
      "Ġcheek": 9287,
      "Ġattorney": 9288,
      "Ġstrict": 9289,
      "ĠArts": 9290,
      "char": 9291,
      "Ġstuffed": 9292,
      "Ġfacts": 9293,
      "Ġmusician": 9294,
      "Ġstaring": 9295,
      "Ġdeeply": 9296,
      "ynasty": 9297,
      "Ġvolunte": 9298,
      "Ġdescribe": 9299,
      "Ġpatients": 9300,
      "Ġindependence": 9301,
      "Billboard": 9302,
      "Ġaccompan": 9303,
      "uddenly": 9304,
      "35": 9305,
      "Mad": 9306,
      "Res": 9307,
      "iac": 9308,
      "Äĩ": 9309,
      "Ġmum": 9310,
      "Ġcousins": 9311,
      "iments": 9312,
      "ĠSon": 9313,
      "ĠMuseum": 9314,
      "ĠTrain": 9315,
      "ĠAS": 9316,
      "ĠCart": 9317,
      "ĠHad": 9318,
      "Ġjam": 9319,
      "olate": 9320,
      "aste": 9321,
      "Ġwanting": 9322,
      "Ġthrust": 9323,
      "Ġpron": 9324,
      "Ġswitch": 9325,
      "Ġsleepy": 9326,
      "Ġunderstanding": 9327,
      "END": 9328,
      "umbles": 9329,
      "Ġicecream": 9330,
      "Ġarrive": 9331,
      "Ġdetail": 9332,
      "Ġlevels": 9333,
      "Anything": 9334,
      "Ġbelly": 9335,
      "ĠCrown": 9336,
      "Ġdebt": 9337,
      "Ġdiscovery": 9338,
      "Ġacquaint": 9339,
      "Ġtowel": 9340,
      "Ġstretched": 9341,
      "Ġribbon": 9342,
      "Ġunusual": 9343,
      "PP": 9344,
      "Sing": 9345,
      "fine": 9346,
      "iar": 9347,
      "lic": 9348,
      "mates": 9349,
      "mail": 9350,
      "phy": 9351,
      "top": 9352,
      "Ġwishes": 9353,
      "note": 9354,
      "ĠMich": 9355,
      "ĠCelia": 9356,
      "Ġwithdraw": 9357,
      "ĠBank": 9358,
      "ilton": 9359,
      "ctic": 9360,
      "Ġrum": 9361,
      "Ġalt": 9362,
      "Ġven": 9363,
      "never": 9364,
      "agement": 9365,
      "Ġmustn": 9366,
      "Ġmarched": 9367,
      "Ġhats": 9368,
      "Ġalongside": 9369,
      "axy": 9370,
      "Ġreturning": 9371,
      "Ġleads": 9372,
      "Ġrefrigerator": 9373,
      "Ġ1966": 9374,
      "Ġ1944": 9375,
      "Ġexplos": 9376,
      "Ġbags": 9377,
      "urious": 9378,
      "Ġsurvive": 9379,
      "Ġliterature": 9380,
      "Grand": 9381,
      "EAH": 9382,
      "ĠSkinner": 9383,
      "Ġpoliceman": 9384,
      "Ġcrayon": 9385,
      "ouncillor": 9386,
      ";\"": 9387,
      "Again": 9388,
      "Bring": 9389,
      "Dar": 9390,
      "Jim": 9391,
      "Open": 9392,
      "President": 9393,
      "nine": 9394,
      "oa": 9395,
      "vant": 9396,
      "haha": 9397,
      "ĠIce": 9398,
      "ĠMall": 9399,
      "ĠBBC": 9400,
      "Ġseal": 9401,
      "ĠHistory": 9402,
      "ATION": 9403,
      "Ġsale": 9404,
      "ĠDam": 9405,
      "quis": 9406,
      "aug": 9407,
      "ĠKira": 9408,
      "Ġprob": 9409,
      "Ġblaz": 9410,
      "zzy": 9411,
      "Ġsecrets": 9412,
      "Ġreads": 9413,
      "ANK": 9414,
      "Ġnearby": 9415,
      "Ġcared": 9416,
      "Ġsquad": 9417,
      "removes": 9418,
      "Ġgrowth": 9419,
      "ronic": 9420,
      "Ġparking": 9421,
      "talks": 9422,
      "Ġprayer": 9423,
      "writing": 9424,
[...]
